#ifndef __SK_MODEL_H
#define __SK_MODEL_H
alignas(16) const unsigned char modelBuffer[] = {
  0x20, 0x00, 0x00, 0x00, 0x54, 0x46, 0x4c, 0x33, 0x00, 0x00, 0x00, 0x00,
  0x14, 0x00, 0x20, 0x00, 0x1c, 0x00, 0x18, 0x00, 0x14, 0x00, 0x10, 0x00,
  0x0c, 0x00, 0x00, 0x00, 0x08, 0x00, 0x04, 0x00, 0x14, 0x00, 0x00, 0x00,
  0x1c, 0x00, 0x00, 0x00, 0x84, 0x00, 0x00, 0x00, 0xdc, 0x00, 0x00, 0x00,
  0x58, 0x32, 0x00, 0x00, 0x68, 0x32, 0x00, 0x00, 0x24, 0xa8, 0x00, 0x00,
  0x03, 0x00, 0x00, 0x00, 0x01, 0x00, 0x00, 0x00, 0x04, 0x00, 0x00, 0x00,
  0x56, 0xc2, 0xff, 0xff, 0x0c, 0x00, 0x00, 0x00, 0x1c, 0x00, 0x00, 0x00,
  0x3c, 0x00, 0x00, 0x00, 0x0f, 0x00, 0x00, 0x00, 0x73, 0x65, 0x72, 0x76,
  0x69, 0x6e, 0x67, 0x5f, 0x64, 0x65, 0x66, 0x61, 0x75, 0x6c, 0x74, 0x00,
  0x01, 0x00, 0x00, 0x00, 0x04, 0x00, 0x00, 0x00, 0x98, 0xff, 0xff, 0xff,
  0x71, 0x00, 0x00, 0x00, 0x04, 0x00, 0x00, 0x00, 0x09, 0x00, 0x00, 0x00,
  0x72, 0x65, 0x73, 0x68, 0x61, 0x70, 0x65, 0x5f, 0x31, 0x00, 0x00, 0x00,
  0x01, 0x00, 0x00, 0x00, 0x04, 0x00, 0x00, 0x00, 0x5e, 0xc2, 0xff, 0xff,
  0x04, 0x00, 0x00, 0x00, 0x07, 0x00, 0x00, 0x00, 0x69, 0x6e, 0x70, 0x75,
  0x74, 0x5f, 0x31, 0x00, 0x02, 0x00, 0x00, 0x00, 0x34, 0x00, 0x00, 0x00,
  0x04, 0x00, 0x00, 0x00, 0xdc, 0xff, 0xff, 0xff, 0x74, 0x00, 0x00, 0x00,
  0x04, 0x00, 0x00, 0x00, 0x13, 0x00, 0x00, 0x00, 0x43, 0x4f, 0x4e, 0x56,
  0x45, 0x52, 0x53, 0x49, 0x4f, 0x4e, 0x5f, 0x4d, 0x45, 0x54, 0x41, 0x44,
  0x41, 0x54, 0x41, 0x00, 0x08, 0x00, 0x0c, 0x00, 0x08, 0x00, 0x04, 0x00,
  0x08, 0x00, 0x00, 0x00, 0x73, 0x00, 0x00, 0x00, 0x04, 0x00, 0x00, 0x00,
  0x13, 0x00, 0x00, 0x00, 0x6d, 0x69, 0x6e, 0x5f, 0x72, 0x75, 0x6e, 0x74,
  0x69, 0x6d, 0x65, 0x5f, 0x76, 0x65, 0x72, 0x73, 0x69, 0x6f, 0x6e, 0x00,
  0x75, 0x00, 0x00, 0x00, 0x78, 0x31, 0x00, 0x00, 0x70, 0x31, 0x00, 0x00,
  0x5c, 0x31, 0x00, 0x00, 0x48, 0x31, 0x00, 0x00, 0x40, 0x31, 0x00, 0x00,
  0x2c, 0x31, 0x00, 0x00, 0x18, 0x31, 0x00, 0x00, 0x00, 0x31, 0x00, 0x00,
  0xe0, 0x30, 0x00, 0x00, 0xc0, 0x30, 0x00, 0x00, 0xa8, 0x30, 0x00, 0x00,
  0x88, 0x30, 0x00, 0x00, 0x70, 0x30, 0x00, 0x00, 0x50, 0x30, 0x00, 0x00,
  0x3c, 0x30, 0x00, 0x00, 0x24, 0x30, 0x00, 0x00, 0x94, 0x2d, 0x00, 0x00,
  0x84, 0x2c, 0x00, 0x00, 0x74, 0x20, 0x00, 0x00, 0xa4, 0x1f, 0x00, 0x00,
  0x54, 0x1d, 0x00, 0x00, 0x14, 0x1d, 0x00, 0x00, 0xc4, 0x1a, 0x00, 0x00,
  0x84, 0x1a, 0x00, 0x00, 0x44, 0x1a, 0x00, 0x00, 0x74, 0x19, 0x00, 0x00,
  0x74, 0x18, 0x00, 0x00, 0xa4, 0x17, 0x00, 0x00, 0x94, 0x11, 0x00, 0x00,
  0x04, 0x11, 0x00, 0x00, 0xf4, 0x0f, 0x00, 0x00, 0xc4, 0x0f, 0x00, 0x00,
  0xb4, 0x0e, 0x00, 0x00, 0x84, 0x0e, 0x00, 0x00, 0x54, 0x0e, 0x00, 0x00,
  0xc4, 0x0d, 0x00, 0x00, 0x14, 0x0d, 0x00, 0x00, 0x84, 0x0c, 0x00, 0x00,
  0x74, 0x09, 0x00, 0x00, 0x04, 0x09, 0x00, 0x00, 0x64, 0x08, 0x00, 0x00,
  0x3c, 0x08, 0x00, 0x00, 0x9c, 0x07, 0x00, 0x00, 0x74, 0x07, 0x00, 0x00,
  0x4c, 0x07, 0x00, 0x00, 0xdc, 0x06, 0x00, 0x00, 0x54, 0x06, 0x00, 0x00,
  0xe4, 0x05, 0x00, 0x00, 0x84, 0x04, 0x00, 0x00, 0x70, 0x04, 0x00, 0x00,
  0x68, 0x04, 0x00, 0x00, 0x60, 0x04, 0x00, 0x00, 0x58, 0x04, 0x00, 0x00,
  0x10, 0x04, 0x00, 0x00, 0xd4, 0x03, 0x00, 0x00, 0xb8, 0x03, 0x00, 0x00,
  0x7c, 0x03, 0x00, 0x00, 0x34, 0x03, 0x00, 0x00, 0xdc, 0x02, 0x00, 0x00,
  0x94, 0x02, 0x00, 0x00, 0x3c, 0x02, 0x00, 0x00, 0x34, 0x02, 0x00, 0x00,
  0x2c, 0x02, 0x00, 0x00, 0x24, 0x02, 0x00, 0x00, 0x1c, 0x02, 0x00, 0x00,
  0x14, 0x02, 0x00, 0x00, 0x0c, 0x02, 0x00, 0x00, 0x04, 0x02, 0x00, 0x00,
  0xfc, 0x01, 0x00, 0x00, 0xf4, 0x01, 0x00, 0x00, 0xec, 0x01, 0x00, 0x00,
  0xe4, 0x01, 0x00, 0x00, 0xdc, 0x01, 0x00, 0x00, 0xd4, 0x01, 0x00, 0x00,
  0xcc, 0x01, 0x00, 0x00, 0xc4, 0x01, 0x00, 0x00, 0xbc, 0x01, 0x00, 0x00,
  0xb4, 0x01, 0x00, 0x00, 0xac, 0x01, 0x00, 0x00, 0xa4, 0x01, 0x00, 0x00,
  0x9c, 0x01, 0x00, 0x00, 0x94, 0x01, 0x00, 0x00, 0x8c, 0x01, 0x00, 0x00,
  0x84, 0x01, 0x00, 0x00, 0x7c, 0x01, 0x00, 0x00, 0x74, 0x01, 0x00, 0x00,
  0x6c, 0x01, 0x00, 0x00, 0x64, 0x01, 0x00, 0x00, 0x5c, 0x01, 0x00, 0x00,
  0x54, 0x01, 0x00, 0x00, 0x4c, 0x01, 0x00, 0x00, 0x44, 0x01, 0x00, 0x00,
  0x3c, 0x01, 0x00, 0x00, 0x34, 0x01, 0x00, 0x00, 0x2c, 0x01, 0x00, 0x00,
  0x24, 0x01, 0x00, 0x00, 0x1c, 0x01, 0x00, 0x00, 0x14, 0x01, 0x00, 0x00,
  0x0c, 0x01, 0x00, 0x00, 0x04, 0x01, 0x00, 0x00, 0xfc, 0x00, 0x00, 0x00,
  0xf4, 0x00, 0x00, 0x00, 0xec, 0x00, 0x00, 0x00, 0xe4, 0x00, 0x00, 0x00,
  0xdc, 0x00, 0x00, 0x00, 0xd4, 0x00, 0x00, 0x00, 0xcc, 0x00, 0x00, 0x00,
  0xc4, 0x00, 0x00, 0x00, 0xbc, 0x00, 0x00, 0x00, 0xb4, 0x00, 0x00, 0x00,
  0xac, 0x00, 0x00, 0x00, 0xa4, 0x00, 0x00, 0x00, 0x9c, 0x00, 0x00, 0x00,
  0x94, 0x00, 0x00, 0x00, 0x8c, 0x00, 0x00, 0x00, 0x6c, 0x00, 0x00, 0x00,
  0x04, 0x00, 0x00, 0x00, 0xa6, 0xc4, 0xff, 0xff, 0x04, 0x00, 0x00, 0x00,
  0x58, 0x00, 0x00, 0x00, 0x0c, 0x00, 0x00, 0x00, 0x08, 0x00, 0x0e, 0x00,
  0x08, 0x00, 0x04, 0x00, 0x08, 0x00, 0x00, 0x00, 0x10, 0x00, 0x00, 0x00,
  0x28, 0x00, 0x00, 0x00, 0x00, 0x00, 0x06, 0x00, 0x08, 0x00, 0x04, 0x00,
  0x06, 0x00, 0x00, 0x00, 0x04, 0x00, 0x00, 0x00, 0x01, 0x00, 0x00, 0x00,
  0xeb, 0x03, 0x00, 0x00, 0x00, 0x00, 0x0a, 0x00, 0x10, 0x00, 0x0c, 0x00,
  0x08, 0x00, 0x04, 0x00, 0x0a, 0x00, 0x00, 0x00, 0x02, 0x00, 0x00, 0x00,
  0x02, 0x00, 0x00, 0x00, 0x04, 0x00, 0x00, 0x00, 0x06, 0x00, 0x00, 0x00,
  0x32, 0x2e, 0x31, 0x34, 0x2e, 0x30, 0x00, 0x00, 0x0a, 0xc5, 0xff, 0xff,
  0x04, 0x00, 0x00, 0x00, 0x10, 0x00, 0x00, 0x00, 0x32, 0x2e, 0x31, 0x2e,
  0x30, 0x00, 0x00, 0x00, 0x00, 0x00, 0x00, 0x00, 0x00, 0x00, 0x00, 0x00,
  0xe0, 0x5b, 0xff, 0xff, 0xe4, 0x5b, 0xff, 0xff, 0xe8, 0x5b, 0xff, 0xff,
  0xec, 0x5b, 0xff, 0xff, 0xf0, 0x5b, 0xff, 0xff, 0xf4, 0x5b, 0xff, 0xff,
  0xf8, 0x5b, 0xff, 0xff, 0xfc, 0x5b, 0xff, 0xff, 0x00, 0x5c, 0xff, 0xff,
  0x04, 0x5c, 0xff, 0xff, 0x08, 0x5c, 0xff, 0xff, 0x0c, 0x5c, 0xff, 0xff,
  0x10, 0x5c, 0xff, 0xff, 0x14, 0x5c, 0xff, 0xff, 0x18, 0x5c, 0xff, 0xff,
  0x1c, 0x5c, 0xff, 0xff, 0x20, 0x5c, 0xff, 0xff, 0x24, 0x5c, 0xff, 0xff,
  0x28, 0x5c, 0xff, 0xff, 0x2c, 0x5c, 0xff, 0xff, 0x30, 0x5c, 0xff, 0xff,
  0x34, 0x5c, 0xff, 0xff, 0x38, 0x5c, 0xff, 0xff, 0x3c, 0x5c, 0xff, 0xff,
  0x40, 0x5c, 0xff, 0xff, 0x44, 0x5c, 0xff, 0xff, 0x48, 0x5c, 0xff, 0xff,
  0x4c, 0x5c, 0xff, 0xff, 0x50, 0x5c, 0xff, 0xff, 0x54, 0x5c, 0xff, 0xff,
  0x58, 0x5c, 0xff, 0xff, 0x5c, 0x5c, 0xff, 0xff, 0x60, 0x5c, 0xff, 0xff,
  0x64, 0x5c, 0xff, 0xff, 0x68, 0x5c, 0xff, 0xff, 0x6c, 0x5c, 0xff, 0xff,
  0x70, 0x5c, 0xff, 0xff, 0x74, 0x5c, 0xff, 0xff, 0x78, 0x5c, 0xff, 0xff,
  0x7c, 0x5c, 0xff, 0xff, 0x80, 0x5c, 0xff, 0xff, 0x84, 0x5c, 0xff, 0xff,
  0x88, 0x5c, 0xff, 0xff, 0x8c, 0x5c, 0xff, 0xff, 0x90, 0x5c, 0xff, 0xff,
  0x94, 0x5c, 0xff, 0xff, 0x98, 0x5c, 0xff, 0xff, 0x9c, 0x5c, 0xff, 0xff,
  0xa0, 0x5c, 0xff, 0xff, 0xa4, 0x5c, 0xff, 0xff, 0xa8, 0x5c, 0xff, 0xff,
  0xac, 0x5c, 0xff, 0xff, 0xb0, 0x5c, 0xff, 0xff, 0xb4, 0x5c, 0xff, 0xff,
  0xfe, 0xc5, 0xff, 0xff, 0x04, 0x00, 0x00, 0x00, 0x46, 0x00, 0x00, 0x00,
  0xfe, 0x67, 0x0c, 0xa2, 0xe5, 0x1e, 0x06, 0x7f, 0x7f, 0x1e, 0xb3, 0x81,
  0x81, 0x0c, 0x0f, 0x81, 0xda, 0xe8, 0xf4, 0x7f, 0x81, 0xe9, 0x2d, 0x20,
  0x0b, 0x41, 0x95, 0x34, 0x0e, 0x8b, 0x81, 0xda, 0x3f, 0xdd, 0xda, 0x1f,
  0xc8, 0x03, 0x7f, 0x2c, 0x4a, 0x81, 0xee, 0x73, 0x35, 0x6f, 0x90, 0xbb,
  0x11, 0xf1, 0x0f, 0xd9, 0xfe, 0x14, 0xe2, 0xcb, 0x81, 0x98, 0xd7, 0x7f,
  0x81, 0xeb, 0xff, 0xc5, 0xd0, 0x7f, 0x92, 0x2d, 0x1e, 0xdf, 0x00, 0x00,
  0x52, 0xc6, 0xff, 0xff, 0x04, 0x00, 0x00, 0x00, 0x38, 0x00, 0x00, 0x00,
  0xf9, 0x00, 0x00, 0x00, 0x29, 0x02, 0x00, 0x00, 0x2a, 0xff, 0xff, 0xff,
  0xd5, 0xff, 0xff, 0xff, 0x5b, 0x00, 0x00, 0x00, 0xa7, 0x00, 0x00, 0x00,
  0xa4, 0xfe, 0xff, 0xff, 0x0a, 0x00, 0x00, 0x00, 0x6b, 0xff, 0xff, 0xff,
  0x6b, 0x00, 0x00, 0x00, 0x70, 0x02, 0x00, 0x00, 0x21, 0x04, 0x00, 0x00,
  0x2e, 0x00, 0x00, 0x00, 0x1d, 0x00, 0x00, 0x00, 0x96, 0xc6, 0xff, 0xff,
  0x04, 0x00, 0x00, 0x00, 0x46, 0x00, 0x00, 0x00, 0x7f, 0x7f, 0x82, 0x7f,
  0x61, 0xe1, 0x0b, 0xd8, 0xe2, 0x77, 0xa7, 0xf6, 0x0e, 0xdf, 0x02, 0x2e,
  0x2b, 0x48, 0x37, 0x18, 0x09, 0x07, 0x5c, 0x42, 0x2a, 0xb6, 0x81, 0x6c,
  0xe8, 0xda, 0x7f, 0x51, 0x7f, 0x7f, 0x81, 0x01, 0x36, 0x58, 0x7f, 0xe7,
  0xe2, 0x7f, 0xfd, 0xca, 0x25, 0x24, 0x28, 0xfc, 0xbb, 0x81, 0x81, 0x81,
  0x1a, 0x7f, 0x14, 0xd9, 0xe4, 0xdb, 0x43, 0xdd, 0x06, 0x4e, 0x1b, 0xcf,
  0x9b, 0xfe, 0x42, 0x1e, 0xf2, 0x46, 0x00, 0x00, 0xea, 0xc6, 0xff, 0xff,
  0x04, 0x00, 0x00, 0x00, 0x38, 0x00, 0x00, 0x00, 0x0d, 0x00, 0x00, 0x00,
  0x84, 0x00, 0x00, 0x00, 0xd1, 0x01, 0x00, 0x00, 0xf2, 0x02, 0x00, 0x00,
  0x06, 0x00, 0x00, 0x00, 0xcb, 0xfe, 0xff, 0xff, 0x44, 0xff, 0xff, 0xff,
  0x4e, 0x01, 0x00, 0x00, 0x98, 0x00, 0x00, 0x00, 0x9e, 0x01, 0x00, 0x00,
  0xfa, 0xfd, 0xff, 0xff, 0x19, 0xff, 0xff, 0xff, 0xc2, 0x02, 0x00, 0x00,
  0xf8, 0x01, 0x00, 0x00, 0x2e, 0xc7, 0xff, 0xff, 0x04, 0x00, 0x00, 0x00,
  0x2a, 0x00, 0x00, 0x00, 0x0b, 0x11, 0x0c, 0xc3, 0x27, 0x00, 0x81, 0xff,
  0x01, 0x1c, 0xd5, 0xe9, 0xef, 0xf6, 0x5b, 0xec, 0xed, 0x0c, 0x22, 0xf1,
  0x81, 0xb0, 0x4e, 0x6b, 0x20, 0xde, 0xfd, 0x31, 0x7f, 0xb4, 0xd7, 0x69,
  0x1c, 0xe1, 0x37, 0xf0, 0x98, 0x00, 0x28, 0x4d, 0x02, 0xd1, 0x00, 0x00,
  0x66, 0xc7, 0xff, 0xff, 0x04, 0x00, 0x00, 0x00, 0x0c, 0x00, 0x00, 0x00,
  0x3d, 0xf9, 0xff, 0xff, 0xc3, 0xfd, 0xff, 0xff, 0x39, 0x06, 0x00, 0x00,
  0x7e, 0xc7, 0xff, 0xff, 0x04, 0x00, 0x00, 0x00, 0x2a, 0x00, 0x00, 0x00,
  0x81, 0xeb, 0x16, 0x7f, 0x1d, 0x71, 0x7f, 0x06, 0x68, 0x2c, 0x8e, 0x81,
  0x45, 0x26, 0x81, 0x81, 0x0d, 0x4a, 0xb5, 0x7f, 0x99, 0x12, 0x42, 0x81,
  0x7f, 0xf7, 0x28, 0x7f, 0xbb, 0x0c, 0x42, 0xb9, 0x7f, 0x71, 0x7f, 0x78,
  0x7f, 0x5d, 0xe7, 0x7f, 0x22, 0x81, 0x00, 0x00, 0xb6, 0xc7, 0xff, 0xff,
  0x04, 0x00, 0x00, 0x00, 0x38, 0x00, 0x00, 0x00, 0xf8, 0x82, 0x00, 0x00,
  0x12, 0xcd, 0x00, 0x00, 0x4c, 0x37, 0x02, 0x00, 0x8a, 0xcc, 0x00, 0x00,
  0xcd, 0x2e, 0x01, 0x00, 0xce, 0xa8, 0x00, 0x00, 0x09, 0xaf, 0x00, 0x00,
  0x1b, 0x0e, 0x01, 0x00, 0xb9, 0xf4, 0x00, 0x00, 0x11, 0x98, 0x00, 0x00,
  0x3b, 0x90, 0x01, 0x00, 0x27, 0xbf, 0x00, 0x00, 0x67, 0xdc, 0x00, 0x00,
  0xbe, 0x5a, 0x01, 0x00, 0xb4, 0x5e, 0xff, 0xff, 0xb8, 0x5e, 0xff, 0xff,
  0xbc, 0x5e, 0xff, 0xff, 0x06, 0xc8, 0xff, 0xff, 0x04, 0x00, 0x00, 0x00,
  0x01, 0x00, 0x00, 0x00, 0x7f, 0x00, 0x00, 0x00, 0x16, 0xc8, 0xff, 0xff,
  0x04, 0x00, 0x00, 0x00, 0x50, 0x01, 0x00, 0x00, 0x20, 0xf2, 0x10, 0x11,
  0xa0, 0x0d, 0xc1, 0x2d, 0xd6, 0x09, 0x81, 0xae, 0xef, 0x10, 0x15, 0x7f,
  0xe5, 0xe1, 0xdd, 0xcb, 0x32, 0x22, 0xbc, 0xa4, 0xd9, 0x15, 0xd1, 0xc3,
  0x14, 0xfa, 0xd2, 0x11, 0xd6, 0xc4, 0x10, 0x3a, 0xf5, 0xf7, 0xf7, 0xf6,
  0xd2, 0x81, 0xdb, 0x20, 0x3a, 0x81, 0x04, 0x32, 0xe1, 0xe3, 0xd6, 0x2d,
  0x03, 0x12, 0x10, 0xb4, 0x0c, 0x36, 0x24, 0xf0, 0xd3, 0x0c, 0x10, 0x81,
  0x0d, 0x0b, 0x05, 0x03, 0x1f, 0xed, 0x00, 0xfc, 0x12, 0x04, 0x0f, 0x02,
  0x00, 0x01, 0x0d, 0x81, 0xfc, 0xf8, 0x08, 0xf2, 0x22, 0xd3, 0x1d, 0x7f,
  0xd4, 0xf1, 0x1d, 0xf2, 0xea, 0xc1, 0xec, 0xf4, 0xbf, 0x1d, 0x03, 0x10,
  0xec, 0xf1, 0x17, 0x18, 0x81, 0x16, 0x0d, 0x0e, 0x01, 0xf9, 0x06, 0xfc,
  0x81, 0x05, 0x3b, 0x13, 0x27, 0xcf, 0xca, 0xbd, 0x86, 0xe8, 0x36, 0xe7,
  0x2f, 0xd5, 0x34, 0x81, 0xcc, 0x8a, 0xdf, 0xe0, 0x02, 0x21, 0x46, 0xb7,
  0xf8, 0x1a, 0xc6, 0xf7, 0x5c, 0x0e, 0x98, 0xe7, 0x81, 0x1e, 0x3d, 0xdb,
  0x13, 0x36, 0x40, 0xf0, 0x3b, 0x6d, 0xf3, 0xea, 0xf8, 0xda, 0x03, 0x01,
  0x0b, 0xde, 0x81, 0xe3, 0x3d, 0x03, 0xf1, 0x15, 0xfd, 0x42, 0x42, 0x43,
  0xfe, 0xff, 0xf4, 0xfd, 0x3c, 0x16, 0x0a, 0x12, 0x7f, 0xd0, 0x04, 0xd2,
  0xc7, 0x13, 0xdb, 0x8f, 0x10, 0x26, 0xf8, 0x08, 0x00, 0xf9, 0x81, 0xe7,
  0x0a, 0x1f, 0x27, 0x2c, 0xeb, 0x01, 0xe8, 0x05, 0x12, 0xf6, 0xfe, 0xf2,
  0x31, 0x81, 0x11, 0x7f, 0x13, 0x38, 0xfa, 0x1d, 0x00, 0x0b, 0x01, 0xfb,
  0x07, 0x57, 0xe9, 0xf2, 0xd1, 0xfb, 0x3b, 0xf5, 0x13, 0xf5, 0xed, 0xb3,
  0xec, 0x07, 0x1c, 0x7f, 0x3b, 0xfa, 0x45, 0x26, 0x81, 0xb8, 0x87, 0xf8,
  0x12, 0x21, 0xea, 0x7e, 0x26, 0x0a, 0xe7, 0xba, 0x00, 0x11, 0x00, 0x00,
  0x00, 0x00, 0x00, 0x7f, 0x00, 0x2c, 0x01, 0x00, 0x00, 0x00, 0x3f, 0x70,
  0xc8, 0xd8, 0xee, 0x0f, 0x2b, 0xdb, 0xe2, 0x36, 0x7f, 0xf0, 0xff, 0x13,
  0x13, 0x35, 0xdb, 0x0f, 0xe3, 0x81, 0x05, 0xd3, 0xdd, 0x05, 0x41, 0xdc,
  0x47, 0x18, 0x81, 0xf6, 0xad, 0xe4, 0xe6, 0xd7, 0xf9, 0x91, 0x14, 0x0b,
  0x21, 0x24, 0xfb, 0x0e, 0x48, 0x0d, 0x1d, 0x39, 0x4c, 0xe3, 0x9d, 0x29,
  0x5d, 0xcf, 0xc7, 0xe2, 0x81, 0x45, 0x04, 0x29, 0xf0, 0x4c, 0x11, 0x81,
  0x9b, 0x3c, 0x07, 0x1d, 0x2b, 0x37, 0x2c, 0xe0, 0x72, 0xc9, 0xff, 0xff,
  0x04, 0x00, 0x00, 0x00, 0x60, 0x00, 0x00, 0x00, 0x63, 0x18, 0x00, 0x00,
  0x94, 0x03, 0x00, 0x00, 0xb8, 0x12, 0x00, 0x00, 0x5b, 0x0e, 0x00, 0x00,
  0x00, 0x03, 0x00, 0x00, 0x51, 0x07, 0x00, 0x00, 0x0a, 0x04, 0x00, 0x00,
  0xd3, 0x0c, 0x00, 0x00, 0x3c, 0x00, 0x00, 0x00, 0x68, 0x2b, 0x00, 0x00,
  0x9d, 0xff, 0xff, 0xff, 0xc0, 0x0c, 0x00, 0x00, 0xe9, 0xd8, 0xff, 0xff,
  0x50, 0x29, 0x00, 0x00, 0x14, 0x00, 0x00, 0x00, 0x1f, 0xe9, 0xff, 0xff,
  0x82, 0xfb, 0xff, 0xff, 0x1c, 0x0d, 0x00, 0x00, 0xc3, 0x04, 0xfb, 0xff,
  0x0e, 0xdf, 0xff, 0xff, 0xf6, 0xf8, 0xff, 0xff, 0x7f, 0x09, 0x00, 0x00,
  0x67, 0x06, 0x00, 0x00, 0x40, 0xfb, 0xff, 0xff, 0xde, 0xc9, 0xff, 0xff,
  0x04, 0x00, 0x00, 0x00, 0x78, 0x00, 0x00, 0x00, 0x57, 0xf1, 0x03, 0x7f,
  0x05, 0x7f, 0xc3, 0x0f, 0x05, 0x67, 0x31, 0x7f, 0xda, 0x19, 0x08, 0x06,
  0x58, 0x1b, 0xff, 0x67, 0x18, 0x57, 0xea, 0x7f, 0x7a, 0x20, 0x0f, 0x4b,
  0xe3, 0xa4, 0xa6, 0x18, 0x3b, 0x7f, 0x1f, 0x06, 0x08, 0x17, 0x0b, 0xcc,
  0x7f, 0x60, 0x00, 0x47, 0x44, 0x62, 0x18, 0x31, 0x6a, 0x35, 0xcc, 0xec,
  0xfb, 0xa3, 0x81, 0xee, 0xd3, 0x13, 0x33, 0x04, 0x1b, 0x2f, 0x81, 0xb2,
  0x62, 0x7f, 0x00, 0x7f, 0x7f, 0x7f, 0x97, 0x2d, 0x6b, 0x7f, 0x81, 0xac,
  0x7f, 0xfd, 0x06, 0x7f, 0x7f, 0x89, 0x81, 0x07, 0x89, 0x7f, 0x40, 0x94,
  0x15, 0x2c, 0xfe, 0x2f, 0x50, 0x2d, 0x81, 0x2f, 0x7f, 0x5b, 0x00, 0x9e,
  0x0d, 0x0a, 0xdf, 0x32, 0xea, 0xd3, 0xd7, 0x0f, 0x81, 0xfc, 0x0c, 0x81,
  0x23, 0x07, 0x81, 0x0d, 0x61, 0x64, 0x73, 0x28, 0x62, 0xca, 0xff, 0xff,
  0x04, 0x00, 0x00, 0x00, 0x60, 0x00, 0x00, 0x00, 0x00, 0x00, 0x00, 0x00,
  0x00, 0x00, 0x00, 0x00, 0x00, 0x00, 0x00, 0x00, 0x00, 0x00, 0x00, 0x00,
  0x00, 0x00, 0x00, 0x00, 0x00, 0x00, 0x00, 0x00, 0x00, 0x00, 0x00, 0x00,
  0x00, 0x00, 0x00, 0x00, 0x00, 0x00, 0x00, 0x00, 0x00, 0x00, 0x00, 0x00,
  0x00, 0x00, 0x00, 0x00, 0x00, 0x00, 0x00, 0x00, 0x00, 0x00, 0x00, 0x00,
  0x00, 0x00, 0x00, 0x00, 0x00, 0x00, 0x00, 0x00, 0x00, 0x00, 0x00, 0x00,
  0x00, 0x00, 0x00, 0x00, 0x00, 0x00, 0x00, 0x00, 0x00, 0x00, 0x00, 0x00,
  0x00, 0x00, 0x00, 0x00, 0x00, 0x00, 0x00, 0x00, 0x00, 0x00, 0x00, 0x00,
  0x00, 0x00, 0x00, 0x00, 0x00, 0x00, 0x00, 0x00, 0xce, 0xca, 0xff, 0xff,
  0x04, 0x00, 0x00, 0x00, 0x18, 0x00, 0x00, 0x00, 0xf6, 0x05, 0xe7, 0xda,
  0x1a, 0x0e, 0xfc, 0xeb, 0x7f, 0xf4, 0xe5, 0x43, 0xe6, 0xfa, 0x01, 0xde,
  0xc3, 0xec, 0x43, 0xeb, 0xc3, 0x1d, 0xd5, 0xba, 0xf2, 0xca, 0xff, 0xff,
  0x04, 0x00, 0x00, 0x00, 0x18, 0x00, 0x00, 0x00, 0x9e, 0xf2, 0x7f, 0x39,
  0xc7, 0x30, 0x63, 0xc3, 0x03, 0xeb, 0x43, 0xe4, 0x53, 0x80, 0x48, 0x62,
  0xc2, 0xe6, 0xf7, 0xce, 0xc9, 0xe1, 0x29, 0xd9, 0x16, 0xcb, 0xff, 0xff,
  0x04, 0x00, 0x00, 0x00, 0x90, 0x00, 0x00, 0x00, 0x13, 0x18, 0x81, 0x04,
  0xb6, 0xc2, 0x89, 0xbc, 0x61, 0x10, 0xaa, 0x1f, 0x31, 0xae, 0xff, 0xa4,
  0xf7, 0x08, 0x5c, 0xf4, 0xf9, 0xc6, 0x39, 0x03, 0x4d, 0xd7, 0x0a, 0xc0,
  0x0c, 0x13, 0xfb, 0x04, 0x98, 0xe5, 0xb5, 0x96, 0x32, 0x81, 0x51, 0xe2,
  0x8d, 0x2d, 0x31, 0x3b, 0x45, 0x29, 0x3c, 0x8b, 0x89, 0xac, 0x87, 0x31,
  0x1c, 0xf1, 0x09, 0xae, 0x64, 0xfd, 0x38, 0xe1, 0x6e, 0x08, 0x16, 0x40,
  0x37, 0x25, 0x39, 0x12, 0x0c, 0x7f, 0x09, 0x0b, 0x1b, 0x3e, 0x09, 0x54,
  0x2f, 0xf9, 0x24, 0x3d, 0xc9, 0xfb, 0x31, 0xc1, 0xeb, 0x1e, 0x76, 0x81,
  0x24, 0x1a, 0x4e, 0xde, 0xf4, 0xe5, 0x9f, 0xe9, 0xa0, 0x15, 0xeb, 0xe5,
  0x29, 0x81, 0xaa, 0x03, 0x37, 0xbe, 0x9c, 0xf1, 0xb5, 0xa5, 0x35, 0x12,
  0x19, 0x0f, 0xde, 0xe2, 0x0d, 0xd3, 0x02, 0xec, 0x81, 0x38, 0x0e, 0x26,
  0x03, 0x07, 0x33, 0xf8, 0x0e, 0x06, 0xf4, 0xdd, 0xe7, 0xd5, 0xda, 0xcf,
  0x51, 0xfc, 0xd7, 0x22, 0x2e, 0xeb, 0x4a, 0x97, 0xb2, 0xcb, 0xff, 0xff,
  0x04, 0x00, 0x00, 0x00, 0x18, 0x00, 0x00, 0x00, 0xb9, 0xf5, 0xff, 0xff,
  0xe6, 0x05, 0x00, 0x00, 0x6d, 0x06, 0x00, 0x00, 0x0b, 0xff, 0xff, 0xff,
  0x32, 0xfe, 0xff, 0xff, 0x1c, 0x02, 0x00, 0x00, 0xd6, 0xcb, 0xff, 0xff,
  0x04, 0x00, 0x00, 0x00, 0x90, 0x00, 0x00, 0x00, 0x41, 0x7f, 0xff, 0xed,
  0xe6, 0x24, 0xd5, 0xf1, 0x0d, 0x13, 0x7f, 0x16, 0x3c, 0x0e, 0x7f, 0xab,
  0xd0, 0x40, 0xb2, 0x81, 0x0e, 0xc6, 0xdf, 0x2a, 0x7f, 0xe6, 0x50, 0xc9,
  0xb4, 0x09, 0x42, 0xac, 0x19, 0xfe, 0x81, 0x20, 0xce, 0x35, 0x2a, 0x9f,
  0x39, 0x81, 0x7f, 0x50, 0xf1, 0xc6, 0x12, 0xf9, 0x81, 0x4a, 0x2c, 0xe3,
  0x15, 0x1c, 0x12, 0x7f, 0x78, 0x02, 0x25, 0x08, 0x81, 0xce, 0x70, 0x19,
  0x8f, 0x03, 0xd5, 0x0b, 0xfb, 0xf6, 0x11, 0x7f, 0x62, 0xbc, 0x01, 0xf3,
  0x7f, 0x2b, 0xa7, 0xe1, 0xb9, 0xed, 0x05, 0x7f, 0xb8, 0x74, 0x08, 0x81,
  0x7d, 0x4d, 0x2b, 0x9b, 0x3c, 0x6a, 0xeb, 0x7f, 0x16, 0x04, 0x33, 0x81,
  0x41, 0x1a, 0x7f, 0xf9, 0x10, 0xd5, 0xed, 0xdd, 0x0d, 0x7f, 0x36, 0xe3,
  0x46, 0x50, 0x81, 0x42, 0xba, 0xdb, 0x10, 0x4a, 0x7f, 0x2a, 0x99, 0xe0,
  0xbb, 0x7a, 0xb5, 0x81, 0x91, 0xf9, 0xd0, 0x4d, 0x81, 0xd8, 0x7d, 0x48,
  0x6e, 0x0d, 0x7f, 0xe0, 0xc8, 0xc0, 0x1b, 0xd8, 0x72, 0xcc, 0xff, 0xff,
  0x04, 0x00, 0x00, 0x00, 0x60, 0x00, 0x00, 0x00, 0x2f, 0x98, 0x00, 0x00,
  0xb3, 0xa4, 0x00, 0x00, 0xc7, 0x6b, 0x00, 0x00, 0x2f, 0x07, 0x01, 0x00,
  0xf9, 0x85, 0x00, 0x00, 0x69, 0x9b, 0x00, 0x00, 0x20, 0x03, 0x01, 0x00,
  0x71, 0x9c, 0x00, 0x00, 0xbd, 0x78, 0x00, 0x00, 0xd3, 0xd6, 0x00, 0x00,
  0xed, 0xa2, 0x00, 0x00, 0x80, 0x7e, 0x01, 0x00, 0x25, 0xff, 0x00, 0x00,
  0x36, 0x90, 0x00, 0x00, 0xa5, 0x95, 0x00, 0x00, 0x92, 0xaf, 0x00, 0x00,
  0x4a, 0x80, 0x00, 0x00, 0x8d, 0xd5, 0x00, 0x00, 0x17, 0x65, 0x00, 0x00,
  0x2a, 0xc4, 0x00, 0x00, 0x7d, 0x93, 0x00, 0x00, 0x64, 0x71, 0x00, 0x00,
  0x06, 0xb4, 0x00, 0x00, 0xb9, 0x81, 0x00, 0x00, 0xde, 0xcc, 0xff, 0xff,
  0x04, 0x00, 0x00, 0x00, 0x00, 0x03, 0x00, 0x00, 0xb6, 0xc1, 0xc4, 0x30,
  0x56, 0x19, 0xb1, 0x81, 0xd0, 0xde, 0xe0, 0xef, 0xbc, 0x19, 0x29, 0xe0,
  0xba, 0xf2, 0x00, 0xb8, 0xca, 0xd3, 0x23, 0xf1, 0xf6, 0x01, 0x0a, 0x03,
  0x02, 0xf8, 0x34, 0x0c, 0x1a, 0xd8, 0x2b, 0xf2, 0xb4, 0xc6, 0x03, 0xf0,
  0x4c, 0xdd, 0x00, 0x65, 0x01, 0x10, 0xed, 0x7f, 0xe4, 0xe7, 0x0d, 0x14,
  0x11, 0xf7, 0x1a, 0xf0, 0x02, 0xd6, 0xfa, 0x7f, 0xfd, 0x09, 0x08, 0xfe,
  0x09, 0xf5, 0x00, 0xfd, 0xef, 0x06, 0x0e, 0xfd, 0x13, 0xae, 0x5d, 0x0a,
  0x0c, 0x70, 0x39, 0x65, 0x5c, 0x51, 0x4f, 0xf8, 0xf3, 0xd2, 0x3e, 0xd1,
  0x10, 0xbf, 0x00, 0x1c, 0x7f, 0x01, 0x41, 0x46, 0x38, 0x42, 0x77, 0xf2,
  0x1e, 0xf6, 0xeb, 0x49, 0x13, 0xe4, 0x14, 0xcc, 0xbe, 0x81, 0x54, 0x8f,
  0xd3, 0xef, 0x00, 0x77, 0x54, 0x4e, 0x27, 0x30, 0x0e, 0x24, 0xf6, 0x05,
  0xb8, 0xc4, 0x18, 0x18, 0xeb, 0x00, 0xf9, 0xd1, 0xfd, 0x39, 0xcc, 0x1a,
  0x1f, 0x81, 0x00, 0xd1, 0x29, 0xc6, 0xe1, 0xfd, 0xfb, 0x96, 0x74, 0xdc,
  0x10, 0x7b, 0x09, 0x60, 0x7c, 0x55, 0xdf, 0x43, 0xdc, 0xc7, 0x6a, 0xd2,
  0xfa, 0xf4, 0x00, 0x38, 0x7f, 0x41, 0x5e, 0x53, 0x7f, 0x22, 0x46, 0x1c,
  0xe2, 0xe0, 0x28, 0x20, 0xd5, 0x31, 0xae, 0x40, 0x1b, 0xab, 0xdd, 0xc1,
  0xd8, 0x7b, 0x02, 0xac, 0x26, 0x4e, 0xd1, 0x60, 0xf9, 0xf2, 0x16, 0xfe,
  0x7f, 0x23, 0xe0, 0x0a, 0xf0, 0x38, 0xec, 0x12, 0xbf, 0x07, 0x2b, 0xfa,
  0xf1, 0x42, 0x00, 0x01, 0x09, 0x1b, 0xec, 0xd5, 0x02, 0xbc, 0x8f, 0x19,
  0xbf, 0xb0, 0x8e, 0xef, 0xe4, 0x81, 0x34, 0xf9, 0xf2, 0xf3, 0xeb, 0x1f,
  0x8f, 0xdf, 0x00, 0xd1, 0xd3, 0xd8, 0x02, 0x0b, 0xaa, 0x16, 0x37, 0xeb,
  0x26, 0xa1, 0x2d, 0x47, 0x3d, 0xf8, 0x7b, 0x2e, 0xcf, 0x8a, 0x39, 0xcf,
  0x3c, 0x29, 0x00, 0x34, 0x31, 0x7f, 0x19, 0x01, 0x3f, 0xdd, 0x7f, 0x16,
  0xe5, 0x14, 0x55, 0x37, 0x3e, 0x4a, 0x1a, 0xc1, 0xe4, 0xb5, 0x60, 0xb0,
  0xa4, 0xd5, 0x05, 0xcb, 0x02, 0xac, 0x65, 0x3e, 0xd7, 0x9c, 0x00, 0x7f,
  0xeb, 0xeb, 0x23, 0xfb, 0x12, 0x98, 0x0e, 0xf0, 0xea, 0xff, 0xe6, 0xcb,
  0xda, 0x9e, 0x00, 0xa2, 0xa1, 0xe7, 0xf3, 0xf6, 0x04, 0xf8, 0x04, 0xe5,
  0x2e, 0x14, 0x05, 0x1b, 0xee, 0x1e, 0xa6, 0xd2, 0xe7, 0x3d, 0x7f, 0xdb,
  0xc1, 0x10, 0x00, 0x05, 0xe7, 0xd9, 0x08, 0x25, 0xd1, 0xdd, 0x0a, 0x7f,
  0x5e, 0xe4, 0x64, 0x2a, 0x5a, 0x83, 0xf6, 0x09, 0xdc, 0x8d, 0xd1, 0xbd,
  0x27, 0xf7, 0x00, 0xed, 0xea, 0x44, 0x47, 0xfe, 0xd6, 0x98, 0x13, 0x52,
  0xf0, 0x1a, 0x3b, 0x03, 0x26, 0x05, 0xfb, 0x19, 0xd9, 0xd6, 0x08, 0xe1,
  0x25, 0x81, 0x00, 0xc4, 0xc8, 0x36, 0x25, 0xdf, 0x15, 0x0a, 0x9a, 0x4a,
  0x17, 0x12, 0x7f, 0xa6, 0xca, 0x58, 0xa2, 0xf5, 0xc2, 0xe6, 0x6b, 0xae,
  0x0e, 0x19, 0x00, 0x8b, 0x81, 0xd4, 0xf5, 0xa8, 0x86, 0xe9, 0x4d, 0xe5,
  0x7f, 0x53, 0xc2, 0x30, 0xfd, 0x53, 0x58, 0xbd, 0xf5, 0x94, 0x64, 0xdd,
  0xf8, 0x49, 0x00, 0x3e, 0x07, 0x46, 0xea, 0xaf, 0x0a, 0xbd, 0x51, 0xd7,
  0xd7, 0xa4, 0x7a, 0x3e, 0x60, 0x1b, 0x59, 0x04, 0xb4, 0xad, 0x43, 0xa9,
  0xd6, 0xb6, 0x00, 0x81, 0x9e, 0xef, 0x7d, 0xd8, 0x2a, 0xd1, 0x1e, 0x8d,
  0xe9, 0xe5, 0x21, 0x2e, 0xf3, 0xad, 0x42, 0xe6, 0x55, 0xc7, 0xcb, 0x65,
  0x81, 0xf5, 0x00, 0xd4, 0xb3, 0x33, 0xf2, 0xda, 0x15, 0xb3, 0xf8, 0xb1,
  0xb8, 0xf9, 0x81, 0xc3, 0xee, 0xd8, 0xc7, 0xfa, 0xdc, 0x63, 0x03, 0x4d,
  0xcd, 0xf3, 0x00, 0xa2, 0x00, 0x31, 0x05, 0xdb, 0xfb, 0xf4, 0xe2, 0xf5,
  0xed, 0x03, 0x21, 0x81, 0xda, 0x11, 0xab, 0x10, 0xba, 0x5e, 0x0f, 0xd3,
  0xd8, 0x16, 0xff, 0xd7, 0xae, 0xd7, 0x11, 0xe2, 0xe8, 0x88, 0x32, 0xf9,
  0x1d, 0x55, 0xf4, 0x1c, 0x0d, 0x3e, 0xf7, 0x0d, 0x81, 0xa8, 0x4a, 0xe3,
  0xd5, 0xd4, 0x00, 0xea, 0x4b, 0xf7, 0x12, 0xef, 0x00, 0x00, 0x00, 0x00,
  0x00, 0x00, 0x00, 0x00, 0x00, 0x02, 0x00, 0x00, 0x00, 0x00, 0x00, 0x00,
  0x00, 0x00, 0x7f, 0x00, 0xfe, 0x00, 0x00, 0x00, 0x12, 0xd1, 0x40, 0xdc,
  0x0b, 0x1a, 0x1a, 0x2d, 0x47, 0x36, 0x34, 0x51, 0xe5, 0xc1, 0x4d, 0xec,
  0x01, 0xcb, 0x00, 0x31, 0x7f, 0x1a, 0x59, 0x53, 0xfb, 0x25, 0x43, 0xf5,
  0x10, 0x0e, 0x7f, 0x54, 0x12, 0xfc, 0x3a, 0x26, 0xbb, 0xae, 0x1e, 0xc3,
  0x53, 0x10, 0x00, 0x01, 0x22, 0x1c, 0x09, 0x0a, 0xea, 0xfd, 0x81, 0x0c,
  0x1a, 0x0a, 0x50, 0xf3, 0xf3, 0x22, 0xc1, 0xed, 0xdd, 0xe0, 0x2c, 0xe2,
  0x3e, 0x01, 0x00, 0xd9, 0xcb, 0xf4, 0x07, 0xfa, 0xcb, 0xff, 0x59, 0x11,
  0x5e, 0x7f, 0x17, 0x30, 0x1d, 0x2d, 0x31, 0xfe, 0xde, 0xad, 0x5f, 0xdc,
  0x05, 0x0d, 0x00, 0x10, 0x19, 0x2b, 0x1b, 0x0a, 0x20, 0x8d, 0x7f, 0x1d,
  0x35, 0x4c, 0x5b, 0x65, 0xdc, 0x68, 0x2a, 0xcd, 0xac, 0x89, 0x27, 0xb7,
  0x0d, 0xc6, 0x00, 0x04, 0x0c, 0x12, 0x0f, 0x44, 0x7f, 0x0f, 0x03, 0x00,
  0xfd, 0x00, 0x00, 0xff, 0x00, 0xf8, 0x00, 0x00, 0x00, 0x00, 0x00, 0xff,
  0xff, 0x18, 0x0c, 0xf9, 0xf1, 0x00, 0x00, 0x26, 0x09, 0xee, 0xeb, 0x0d,
  0x81, 0xba, 0xc9, 0x00, 0xd1, 0x92, 0x1c, 0x1c, 0x47, 0x32, 0xcc, 0x2f,
  0xdb, 0xd7, 0x00, 0x0c, 0xd0, 0x2f, 0x09, 0xef, 0x00, 0x00, 0x00, 0x00,
  0x00, 0x00, 0x00, 0x00, 0x00, 0x00, 0x00, 0x00, 0x00, 0x00, 0x00, 0x00,
  0x00, 0x00, 0x00, 0x00, 0x00, 0x00, 0x00, 0x00, 0xea, 0xcf, 0xff, 0xff,
  0x04, 0x00, 0x00, 0x00, 0x80, 0x00, 0x00, 0x00, 0x7c, 0x18, 0x00, 0x00,
  0xed, 0xfd, 0xff, 0xff, 0x52, 0xfb, 0xff, 0xff, 0xf6, 0xce, 0xff, 0xff,
  0xb3, 0xfb, 0xff, 0xff, 0xb2, 0x11, 0x00, 0x00, 0xb7, 0xe1, 0xff, 0xff,
  0xe6, 0xf2, 0xff, 0xff, 0x3b, 0x07, 0x00, 0x00, 0x57, 0x23, 0x00, 0x00,
  0x8a, 0xea, 0xff, 0xff, 0x3b, 0xe7, 0xff, 0xff, 0x9d, 0x04, 0x00, 0x00,
  0xcc, 0xf7, 0xff, 0xff, 0x6b, 0x00, 0x00, 0x00, 0x17, 0x03, 0x00, 0x00,
  0xe6, 0xf2, 0xff, 0xff, 0x91, 0xf3, 0xff, 0xff, 0xba, 0xe4, 0xff, 0xff,
  0x9b, 0xf3, 0xff, 0xff, 0xa4, 0x1a, 0x00, 0x00, 0x8b, 0x16, 0x00, 0x00,
  0x76, 0xff, 0xff, 0xff, 0x2f, 0xad, 0xfe, 0xff, 0xc9, 0xde, 0xff, 0xff,
  0x9e, 0x15, 0x00, 0x00, 0x19, 0x03, 0x00, 0x00, 0x5a, 0xe8, 0xff, 0xff,
  0xcf, 0xed, 0xff, 0xff, 0x6a, 0xea, 0xff, 0xff, 0xcd, 0x0b, 0x00, 0x00,
  0x00, 0x00, 0x00, 0xc0, 0x76, 0xd0, 0xff, 0xff, 0x04, 0x00, 0x00, 0x00,
  0xa0, 0x00, 0x00, 0x00, 0xed, 0x7f, 0x27, 0x9b, 0x5e, 0x07, 0x89, 0x3d,
  0x12, 0xeb, 0x65, 0x67, 0x0f, 0x08, 0x7f, 0x30, 0x25, 0x06, 0x42, 0x41,
  0x82, 0xf0, 0x1c, 0x00, 0x13, 0x81, 0x17, 0x29, 0x0e, 0xb4, 0x00, 0x00,
  0x38, 0xc3, 0x30, 0x8e, 0x6e, 0x21, 0x8d, 0x3f, 0x27, 0xac, 0x7f, 0x50,
  0x5a, 0x81, 0x55, 0x29, 0x7f, 0x0a, 0x47, 0x65, 0x90, 0x03, 0xa6, 0x00,
  0xe0, 0xdb, 0x43, 0x41, 0x7f, 0xc5, 0x1c, 0x00, 0x7f, 0xb1, 0x39, 0x90,
  0x6d, 0x81, 0x81, 0x44, 0x7f, 0xaf, 0xed, 0x2e, 0x7f, 0x93, 0xce, 0x53,
  0x3b, 0x7f, 0x62, 0x5e, 0xd1, 0x7f, 0x93, 0x00, 0xc6, 0x64, 0x4c, 0x7f,
  0xe2, 0xb8, 0x7f, 0x00, 0x0b, 0xff, 0x7f, 0x81, 0x7f, 0xce, 0x8f, 0x55,
  0x0a, 0x5d, 0xd5, 0x40, 0x7f, 0x3f, 0xd4, 0x7a, 0x1e, 0x0b, 0x7f, 0x7f,
  0x7f, 0xfb, 0x81, 0x00, 0x81, 0x3a, 0x7f, 0x44, 0x16, 0xb5, 0x1d, 0x00,
  0xd6, 0x09, 0x20, 0xb0, 0x5e, 0xf9, 0xfa, 0x7f, 0x04, 0x7f, 0x0a, 0x7f,
  0x6c, 0x23, 0xe5, 0x7f, 0x43, 0x09, 0x5b, 0x79, 0x5d, 0xe8, 0xa2, 0x00,
  0xa0, 0x1c, 0x68, 0x24, 0x07, 0x81, 0x00, 0x00, 0x22, 0xd1, 0xff, 0xff,
  0x04, 0x00, 0x00, 0x00, 0x80, 0x00, 0x00, 0x00, 0x00, 0x00, 0x00, 0x00,
  0x00, 0x00, 0x00, 0x00, 0x00, 0x00, 0x00, 0x00, 0x00, 0x00, 0x00, 0x00,
  0x00, 0x00, 0x00, 0x00, 0x00, 0x00, 0x00, 0x00, 0x00, 0x00, 0x00, 0x00,
  0x00, 0x00, 0x00, 0x00, 0x00, 0x00, 0x00, 0x00, 0x00, 0x00, 0x00, 0x00,
  0x00, 0x00, 0x00, 0x00, 0x00, 0x00, 0x00, 0x00, 0x00, 0x00, 0x00, 0x00,
  0x00, 0x00, 0x00, 0x00, 0x00, 0x00, 0x00, 0x00, 0x00, 0x00, 0x00, 0x00,
  0x00, 0x00, 0x00, 0x00, 0x00, 0x00, 0x00, 0x00, 0x00, 0x00, 0x00, 0x00,
  0x00, 0x00, 0x00, 0x00, 0x00, 0x00, 0x00, 0x00, 0x00, 0x00, 0x00, 0x00,
  0x00, 0x00, 0x00, 0x00, 0x00, 0x00, 0x00, 0x00, 0x00, 0x00, 0x00, 0x00,
  0x00, 0x00, 0x00, 0x00, 0x00, 0x00, 0x00, 0x00, 0x00, 0x00, 0x00, 0x00,
  0x00, 0x00, 0x00, 0x00, 0x00, 0x00, 0x00, 0x00, 0x00, 0x00, 0x00, 0x00,
  0x00, 0x00, 0x00, 0x00, 0xae, 0xd1, 0xff, 0xff, 0x04, 0x00, 0x00, 0x00,
  0x20, 0x00, 0x00, 0x00, 0x12, 0x21, 0xda, 0x42, 0xb3, 0x1e, 0xeb, 0x02,
  0xe4, 0x29, 0x18, 0x0f, 0x26, 0x41, 0x17, 0xf5, 0x7f, 0xee, 0x76, 0x1f,
  0xfe, 0x0c, 0x28, 0x5c, 0x27, 0x4c, 0x35, 0xae, 0x09, 0x32, 0x21, 0x65,
  0xda, 0xd1, 0xff, 0xff, 0x04, 0x00, 0x00, 0x00, 0x20, 0x00, 0x00, 0x00,
  0xc2, 0xe9, 0xd3, 0x21, 0x80, 0x7f, 0x19, 0xb9, 0xd1, 0xc5, 0xc1, 0xbc,
  0x89, 0x2f, 0xde, 0x9d, 0xcc, 0xc5, 0xd4, 0x8d, 0x0c, 0xbd, 0x23, 0xd9,
  0x33, 0x83, 0xb4, 0x8f, 0xb6, 0xd2, 0xa9, 0xe3, 0x06, 0xd2, 0xff, 0xff,
  0x04, 0x00, 0x00, 0x00, 0x00, 0x01, 0x00, 0x00, 0x0e, 0xf1, 0x1d, 0x62,
  0xf0, 0xed, 0xfd, 0xb6, 0xec, 0xec, 0xf5, 0x84, 0xde, 0x7f, 0x50, 0x08,
  0x1e, 0xd6, 0xce, 0x57, 0xd0, 0xe1, 0xe6, 0xc1, 0x50, 0xb0, 0x4a, 0xdc,
  0xfe, 0xc8, 0xb9, 0x1f, 0x1c, 0xce, 0xd5, 0x29, 0x81, 0x59, 0x0c, 0x55,
  0x93, 0x1a, 0x60, 0x2f, 0x3d, 0xd5, 0x05, 0xd5, 0xfc, 0xb9, 0x0f, 0xe0,
  0xf8, 0xd4, 0x00, 0xd5, 0x63, 0xc6, 0xc7, 0xcc, 0x02, 0x17, 0x04, 0xb8,
  0x3c, 0x03, 0x0e, 0xf1, 0xe2, 0x62, 0xa7, 0x40, 0x71, 0x1a, 0x08, 0xc7,
  0x43, 0x1d, 0x16, 0x5b, 0x7f, 0xeb, 0xc4, 0x06, 0xf5, 0x36, 0xd9, 0xca,
  0x36, 0xe4, 0x38, 0x56, 0x38, 0xbf, 0x1c, 0xd8, 0xed, 0x26, 0x4e, 0x0f,
  0x35, 0x54, 0xec, 0xe1, 0xe9, 0xd6, 0xa0, 0xfd, 0xb6, 0x7f, 0x50, 0xe4,
  0xbd, 0x08, 0x26, 0x42, 0x12, 0xd0, 0x03, 0x18, 0xf8, 0x20, 0x33, 0x50,
  0xb5, 0xc7, 0xed, 0x0d, 0x5c, 0x99, 0xea, 0x21, 0x45, 0xeb, 0x29, 0x17,
  0xa4, 0x02, 0x8b, 0x7e, 0x21, 0xc8, 0xfe, 0xc6, 0x51, 0xcb, 0x54, 0xe2,
  0x46, 0x17, 0x7f, 0x03, 0x5f, 0xaf, 0x6d, 0x2a, 0xde, 0x33, 0x03, 0xfb,
  0xe8, 0x13, 0x23, 0x43, 0xe4, 0xc1, 0x81, 0xd8, 0xeb, 0x23, 0xc6, 0x0b,
  0xed, 0xc6, 0x1c, 0x2e, 0x97, 0xd8, 0x17, 0xa5, 0x27, 0xf3, 0x47, 0xd4,
  0xcf, 0xb9, 0xf7, 0xd5, 0xdf, 0xd7, 0xf3, 0x06, 0x2d, 0xfa, 0x19, 0x39,
  0x3d, 0xab, 0xbb, 0x23, 0xd2, 0x25, 0xac, 0xa6, 0xee, 0x2b, 0x08, 0x2c,
  0x81, 0x15, 0x45, 0xe4, 0x1a, 0x13, 0x3c, 0xc5, 0x06, 0xfa, 0x8d, 0x03,
  0x44, 0x01, 0x41, 0x51, 0xeb, 0xae, 0xe1, 0x09, 0xf8, 0xef, 0xc8, 0xed,
  0xdf, 0xe1, 0x27, 0x04, 0xec, 0x07, 0xe7, 0x0e, 0xf2, 0xc0, 0x81, 0xff,
  0x09, 0x4a, 0x05, 0xf6, 0x94, 0xb5, 0xfe, 0x32, 0xec, 0xea, 0x6d, 0x51,
  0x12, 0xd3, 0xff, 0xff, 0x04, 0x00, 0x00, 0x00, 0x20, 0x00, 0x00, 0x00,
  0x24, 0x09, 0x00, 0x00, 0x60, 0x02, 0x00, 0x00, 0xe4, 0x00, 0x00, 0x00,
  0x46, 0x08, 0x00, 0x00, 0x02, 0x05, 0x00, 0x00, 0xf2, 0xf8, 0xff, 0xff,
  0x47, 0x0c, 0x00, 0x00, 0xec, 0xf6, 0xff, 0xff, 0x3e, 0xd3, 0xff, 0xff,
  0x04, 0x00, 0x00, 0x00, 0x00, 0x01, 0x00, 0x00, 0x37, 0xe5, 0x12, 0x0a,
  0xe0, 0x81, 0xd4, 0xf4, 0xd5, 0xa4, 0xde, 0x7f, 0x35, 0xe7, 0x77, 0xc4,
  0x06, 0x7f, 0xc7, 0xeb, 0x3c, 0x4f, 0x31, 0x1f, 0x6b, 0x3a, 0x3b, 0xe3,
  0x1c, 0xfd, 0xa8, 0x7f, 0x4a, 0x81, 0x08, 0x16, 0xf8, 0xd6, 0x54, 0x01,
  0x26, 0xec, 0xa9, 0xce, 0x5f, 0x0d, 0x7f, 0xe2, 0x34, 0x06, 0x61, 0xdd,
  0x3f, 0x36, 0x7f, 0xf8, 0x81, 0x48, 0xef, 0x05, 0x07, 0xc8, 0x0e, 0xbc,
  0x55, 0x7f, 0xce, 0x27, 0x50, 0x32, 0x96, 0x2c, 0x7f, 0xc8, 0xaa, 0x53,
  0xb7, 0x41, 0x11, 0x1c, 0xf5, 0x7f, 0xfc, 0x81, 0x4f, 0x16, 0xf7, 0x3e,
  0xf4, 0x2b, 0xa1, 0x0b, 0x7f, 0xf1, 0xd7, 0xf5, 0x06, 0x42, 0xcb, 0x61,
  0x81, 0xf8, 0x3d, 0xe0, 0x7f, 0x41, 0x0a, 0x11, 0x1f, 0xa0, 0xdf, 0x0e,
  0xb9, 0x59, 0x04, 0x7f, 0xff, 0xb0, 0x63, 0x3c, 0x9f, 0xe1, 0x22, 0x0e,
  0x81, 0x11, 0xfc, 0x02, 0x32, 0x3f, 0xb1, 0x23, 0x81, 0x2e, 0x27, 0xb6,
  0xd8, 0x7f, 0xd5, 0xfc, 0xe0, 0x6b, 0x24, 0xee, 0xdc, 0x7b, 0xb9, 0x41,
  0x7f, 0xf6, 0x32, 0x3a, 0xeb, 0xff, 0x6d, 0x89, 0x7f, 0xd1, 0xb1, 0x86,
  0x7f, 0xe5, 0x41, 0x17, 0xed, 0xeb, 0x93, 0x21, 0x7f, 0x5f, 0xc6, 0x41,
  0xbc, 0xd7, 0x0b, 0xbe, 0x73, 0x43, 0x08, 0x2c, 0xde, 0xcc, 0xaf, 0x7f,
  0xd9, 0x9e, 0x81, 0x0a, 0x1f, 0x63, 0x30, 0x08, 0x3b, 0x81, 0x32, 0x3f,
  0xf4, 0x5e, 0x0a, 0xea, 0x7f, 0x61, 0x54, 0xf7, 0x62, 0xd6, 0x3d, 0x91,
  0x2e, 0x81, 0xe4, 0x50, 0xb0, 0xc0, 0x4d, 0x3a, 0xd7, 0x59, 0x34, 0x12,
  0x7f, 0xd3, 0xda, 0x0b, 0x0b, 0x2a, 0xfe, 0x8e, 0x13, 0x74, 0x7f, 0x1e,
  0x17, 0xbf, 0x81, 0xe9, 0x4c, 0xd7, 0x6b, 0xcc, 0x38, 0xf3, 0x16, 0x7f,
  0x0f, 0x3d, 0xc2, 0x01, 0x8b, 0xbc, 0xc9, 0xad, 0x81, 0xcb, 0x55, 0xe0,
  0x4a, 0xd4, 0xff, 0xff, 0x04, 0x00, 0x00, 0x00, 0x80, 0x00, 0x00, 0x00,
  0x09, 0x99, 0x00, 0x00, 0xd3, 0x6f, 0x00, 0x00, 0x2b, 0x66, 0x00, 0x00,
  0xd6, 0x80, 0x00, 0x00, 0x43, 0x4a, 0x00, 0x00, 0x1f, 0x4d, 0x00, 0x00,
  0x73, 0xa0, 0x00, 0x00, 0x66, 0x7e, 0x00, 0x00, 0xe7, 0x5a, 0x00, 0x00,
  0xda, 0x6b, 0x00, 0x00, 0x09, 0x4e, 0x00, 0x00, 0x82, 0x52, 0x00, 0x00,
  0xa5, 0x9d, 0x00, 0x00, 0xbe, 0x76, 0x00, 0x00, 0xde, 0x9f, 0x00, 0x00,
  0xa0, 0x46, 0x00, 0x00, 0x9d, 0x68, 0x00, 0x00, 0xe1, 0x7d, 0x00, 0x00,
  0x94, 0xba, 0x00, 0x00, 0x30, 0x84, 0x00, 0x00, 0x1b, 0xa7, 0x00, 0x00,
  0xc7, 0x65, 0x00, 0x00, 0x8f, 0x7c, 0x00, 0x00, 0xd2, 0x52, 0x00, 0x00,
  0x54, 0x75, 0x00, 0x00, 0x1e, 0x7a, 0x00, 0x00, 0x85, 0x4b, 0x00, 0x00,
  0xbf, 0x6f, 0x00, 0x00, 0xe7, 0x55, 0x00, 0x00, 0x5a, 0x56, 0x00, 0x00,
  0x15, 0x63, 0x00, 0x00, 0x0a, 0x67, 0x00, 0x00, 0xd6, 0xd4, 0xff, 0xff,
  0x04, 0x00, 0x00, 0x00, 0x00, 0x06, 0x00, 0x00, 0x6d, 0x2c, 0x29, 0xcf,
  0xb5, 0x53, 0xc3, 0x93, 0x53, 0x40, 0x0e, 0xf2, 0x51, 0x8c, 0x26, 0x31,
  0x61, 0x0c, 0xdc, 0xcc, 0x52, 0x7f, 0xe1, 0x00, 0xf9, 0x0c, 0x8f, 0xfd,
  0x40, 0x00, 0xf2, 0x00, 0x00, 0x00, 0x00, 0x00, 0x00, 0x00, 0x00, 0x00,
  0x00, 0x00, 0x00, 0x00, 0x00, 0x00, 0x00, 0x00, 0x00, 0x00, 0x00, 0x00,
  0x00, 0x00, 0x00, 0x00, 0x00, 0x00, 0x00, 0x00, 0x00, 0x00, 0x00, 0x00,
  0x00, 0x00, 0x00, 0x00, 0x00, 0x00, 0x00, 0x00, 0x00, 0x00, 0x00, 0x00,
  0x00, 0x00, 0x00, 0x00, 0x00, 0x00, 0x00, 0x00, 0x00, 0x00, 0x00, 0x00,
  0x00, 0x00, 0x00, 0x00, 0x00, 0x00, 0x00, 0x00, 0x05, 0xf1, 0xab, 0xd7,
  0x5d, 0xbe, 0x1a, 0x57, 0xb0, 0x23, 0xbe, 0x2c, 0x52, 0xee, 0xc4, 0x78,
  0xa0, 0xee, 0x5f, 0xc5, 0x5e, 0xea, 0xac, 0x00, 0xc3, 0x81, 0xaf, 0xfc,
  0xdf, 0x00, 0xdd, 0x00, 0x92, 0x7f, 0x23, 0xe2, 0x55, 0x08, 0xfd, 0xbb,
  0x07, 0x11, 0x3b, 0xfa, 0x4c, 0xed, 0x08, 0x52, 0x10, 0x4a, 0x41, 0xfe,
  0x67, 0xf5, 0xee, 0x00, 0x37, 0x66, 0xde, 0x31, 0x72, 0x00, 0xf7, 0x00,
  0xd7, 0x4f, 0x17, 0xe7, 0x68, 0xfc, 0xf1, 0x2d, 0xeb, 0xf0, 0x1c, 0x39,
  0x03, 0xed, 0x03, 0x00, 0xb1, 0x0a, 0x47, 0xe8, 0x0d, 0xef, 0x03, 0x00,
  0xd9, 0x81, 0xce, 0x36, 0x15, 0x00, 0xdf, 0x00, 0x00, 0x00, 0x00, 0x00,
  0x00, 0x00, 0x00, 0x00, 0x00, 0x00, 0x00, 0x00, 0x00, 0x00, 0x00, 0x00,
  0x00, 0x00, 0x00, 0x00, 0x00, 0x00, 0x00, 0x00, 0x00, 0x00, 0x00, 0x00,
  0x00, 0x00, 0x00, 0x00, 0x5e, 0xf5, 0x0d, 0xe4, 0xd0, 0x4c, 0xd8, 0xdc,
  0x16, 0x70, 0x22, 0xf0, 0x4e, 0xcf, 0x10, 0x54, 0x46, 0x06, 0xee, 0x09,
  0x18, 0x7f, 0xec, 0x00, 0xd0, 0x05, 0xff, 0x08, 0x1a, 0x00, 0xf7, 0x00,
  0x95, 0xd6, 0x0a, 0x6f, 0xc4, 0xe8, 0x28, 0x06, 0xfb, 0x8d, 0xeb, 0xc4,
  0xab, 0xee, 0xa8, 0x9c, 0x35, 0xf6, 0xd0, 0x24, 0x8f, 0xac, 0x29, 0x00,
  0x63, 0xb7, 0x7f, 0xdf, 0xd0, 0x00, 0x31, 0x00, 0xcd, 0x7f, 0x0c, 0xe6,
  0x39, 0x0f, 0xc5, 0x1d, 0x02, 0xd4, 0x0a, 0x21, 0xd4, 0xe3, 0x37, 0x3e,
  0xe4, 0xe7, 0x36, 0xe2, 0x02, 0xd3, 0xf2, 0x00, 0x31, 0x21, 0x08, 0x18,
  0x13, 0x01, 0xb7, 0x00, 0x00, 0x00, 0x00, 0x00, 0x00, 0x00, 0x00, 0x00,
  0x00, 0x00, 0x00, 0x04, 0x00, 0x00, 0x7f, 0x00, 0x00, 0x00, 0x00, 0x00,
  0x00, 0x00, 0x00, 0x00, 0x00, 0x00, 0x00, 0x00, 0x00, 0x00, 0x00, 0x00,
  0x00, 0x00, 0x00, 0x00, 0x00, 0x00, 0x00, 0x00, 0x00, 0x00, 0x00, 0x00,
  0x00, 0x00, 0x00, 0x00, 0x00, 0x00, 0x00, 0x00, 0x00, 0x00, 0x00, 0x00,
  0x00, 0x00, 0x00, 0x00, 0x00, 0x00, 0x00, 0x00, 0xde, 0xdd, 0xd7, 0x19,
  0xe7, 0xaf, 0xfd, 0x34, 0xc0, 0x25, 0xf9, 0x7f, 0xb1, 0xc3, 0xe5, 0xb1,
  0xf3, 0xe1, 0xde, 0x05, 0xbd, 0xd1, 0xec, 0x00, 0xdd, 0xd9, 0xe8, 0xca,
  0x15, 0x00, 0xc9, 0x00, 0xc2, 0x0f, 0x69, 0x0d, 0x34, 0x6f, 0xb1, 0x2f,
  0x1d, 0x1c, 0x12, 0x46, 0x0f, 0xbe, 0xec, 0x3e, 0xe2, 0x1c, 0x06, 0xc5,
  0xd5, 0xdf, 0xd3, 0x00, 0xc0, 0x4f, 0xce, 0x53, 0x36, 0x03, 0x81, 0x00,
  0xd8, 0xc0, 0x81, 0x79, 0xc5, 0x20, 0x7d, 0xeb, 0xfc, 0xd7, 0xd1, 0xb2,
  0xcc, 0xe0, 0x94, 0xa5, 0x56, 0xea, 0xa5, 0x40, 0xd8, 0xfc, 0x3a, 0x00,
  0x79, 0xe3, 0x0d, 0xc3, 0xc7, 0x00, 0xe2, 0x00, 0xd0, 0x19, 0x2a, 0x19,
  0x7f, 0x45, 0x20, 0x40, 0xf4, 0xb2, 0x34, 0x2a, 0x16, 0xd8, 0x1a, 0xbc,
  0xec, 0x0f, 0x30, 0xd4, 0xd9, 0xe4, 0x05, 0x00, 0xfd, 0x54, 0xea, 0x2a,
  0x0c, 0x00, 0xe3, 0x00, 0xb9, 0x1b, 0x18, 0xfd, 0x2b, 0x7f, 0x2a, 0x13,
  0x24, 0x9f, 0x27, 0xac, 0xe8, 0xeb, 0x0e, 0x2f, 0xf9, 0x1f, 0x54, 0xd7,
  0xb6, 0xdd, 0x05, 0x00, 0x10, 0x54, 0xe4, 0x1f, 0x24, 0x00, 0xc7, 0x00,
  0xf7, 0xce, 0xb3, 0x0e, 0x04, 0xcc, 0x5d, 0x14, 0xd8, 0xff, 0xcd, 0xfb,
  0xb4, 0x26, 0xd6, 0x81, 0xfe, 0xe1, 0xe5, 0x3a, 0xfd, 0x16, 0x54, 0x00,
  0x15, 0x06, 0x26, 0xfe, 0xc1, 0x00, 0x33, 0x00, 0xdd, 0xe4, 0xd7, 0x12,
  0x08, 0x3c, 0x2a, 0xeb, 0x2e, 0x97, 0x7f, 0xf6, 0x8c, 0x0a, 0x1c, 0x3a,
  0x02, 0x30, 0xf9, 0xf2, 0xae, 0xeb, 0xee, 0x00, 0x01, 0xaf, 0xe5, 0xd8,
  0xc4, 0x00, 0xd8, 0x00, 0xa5, 0x2b, 0xca, 0xc2, 0xe5, 0x29, 0x91, 0x43,
  0x1f, 0x96, 0xee, 0x3c, 0xb7, 0xec, 0xbb, 0x8a, 0x25, 0xe9, 0x9a, 0x4f,
  0xf2, 0x0d, 0xa9, 0x00, 0x14, 0x7f, 0x0a, 0x16, 0x39, 0x00, 0xdc, 0x00,
  0xc0, 0xda, 0x0a, 0x68, 0xbc, 0xda, 0x21, 0xf7, 0x0b, 0x9a, 0xed, 0xcd,
  0x9b, 0xe3, 0xb4, 0x99, 0x0e, 0xf2, 0xd8, 0x31, 0x8d, 0x81, 0x2f, 0x00,
  0x75, 0xad, 0x6a, 0xda, 0xbe, 0x00, 0x20, 0x00, 0x95, 0xf9, 0x7f, 0xe5,
  0x62, 0x65, 0xf3, 0x3b, 0x07, 0xcf, 0x10, 0x27, 0xb5, 0xf6, 0xe8, 0x10,
  0xca, 0xe8, 0x5a, 0xe9, 0x0c, 0xed, 0x04, 0x00, 0xaf, 0x15, 0xe1, 0x41,
  0x0f, 0x00, 0xe9, 0x00, 0xf6, 0x2c, 0x10, 0xd8, 0x1e, 0x64, 0xe2, 0xcb,
  0x24, 0x5f, 0x34, 0xf1, 0x62, 0x19, 0xf7, 0x36, 0xf5, 0x11, 0x00, 0x01,
  0x03, 0x7f, 0xcc, 0x00, 0xd1, 0x24, 0xff, 0x13, 0x0e, 0x00, 0xfe, 0x00,
  0xa0, 0x18, 0x0c, 0xa0, 0x7f, 0x12, 0xf7, 0x4d, 0x07, 0xc9, 0xf5, 0x2e,
  0xe0, 0xac, 0x10, 0x39, 0xae, 0x18, 0x7f, 0xc7, 0xf4, 0xc0, 0xaf, 0x00,
  0xc5, 0x77, 0xd6, 0x36, 0x34, 0x02, 0xa1, 0x00, 0xa7, 0xc9, 0xac, 0x28,
  0xd6, 0xd5, 0x27, 0xe5, 0xdf, 0x81, 0xe2, 0x03, 0xcc, 0x46, 0x9f, 0xf6,
  0xd4, 0xfb, 0xe5, 0x3a, 0x96, 0x99, 0x02, 0x00, 0x29, 0xdf, 0x58, 0xd9,
  0xcb, 0x00, 0xc4, 0x00, 0x00, 0x00, 0x00, 0x00, 0x00, 0x00, 0xfd, 0xfd,
  0x00, 0x00, 0x00, 0x1d, 0x00, 0x00, 0x7f, 0x00, 0x00, 0x00, 0x00, 0x00,
  0x00, 0x00, 0x00, 0x00, 0x00, 0x00, 0x00, 0x00, 0x00, 0x00, 0x00, 0x00,
  0x00, 0x00, 0x00, 0x00, 0x00, 0x00, 0x00, 0x00, 0x00, 0x00, 0x00, 0x00,
  0x00, 0x00, 0x00, 0x00, 0x00, 0x00, 0x00, 0x00, 0x00, 0x00, 0x00, 0x00,
  0x00, 0x00, 0x00, 0x00, 0x00, 0x00, 0x00, 0x00, 0x3c, 0xe0, 0xc1, 0x1c,
  0x04, 0xe7, 0x27, 0xea, 0x8c, 0x1e, 0x3d, 0x0d, 0x42, 0x0a, 0x7f, 0xa6,
  0x99, 0xde, 0x0a, 0xf1, 0x57, 0x0f, 0x5f, 0x00, 0xcd, 0x40, 0xbf, 0xcc,
  0xb5, 0x00, 0x5c, 0x00, 0xcd, 0xf6, 0x53, 0xd1, 0x11, 0x45, 0xdc, 0x34,
  0x0c, 0x29, 0x1b, 0x26, 0x2d, 0xd5, 0x01, 0xf1, 0x07, 0x37, 0x0e, 0xc9,
  0xdf, 0x07, 0xe1, 0x00, 0xc6, 0x37, 0xf4, 0x54, 0x2d, 0x00, 0x81, 0x00,
  0x09, 0x08, 0x60, 0xdf, 0x0b, 0x5b, 0xd4, 0xc1, 0x75, 0x21, 0x03, 0xc1,
  0x14, 0xe8, 0x0b, 0x20, 0xfd, 0x7f, 0x24, 0xda, 0x04, 0xe6, 0xca, 0x00,
  0xf4, 0x35, 0xf0, 0x68, 0x00, 0x00, 0x85, 0x00, 0x00, 0x00, 0x00, 0x00,
  0x00, 0x00, 0x00, 0x00, 0x00, 0x00, 0x00, 0x00, 0x00, 0x00, 0x00, 0x00,
  0x00, 0x00, 0x00, 0x00, 0x00, 0x00, 0x00, 0x00, 0x00, 0x00, 0x00, 0x00,
  0x00, 0x00, 0x00, 0x00, 0x00, 0x00, 0x00, 0x00, 0x00, 0x00, 0x00, 0x00,
  0x00, 0x00, 0x00, 0x00, 0x00, 0x00, 0x00, 0x00, 0x00, 0x00, 0x00, 0x00,
  0x00, 0x00, 0x00, 0x00, 0x00, 0x00, 0x00, 0x00, 0x00, 0x00, 0x00, 0x00,
  0x00, 0x00, 0x00, 0x00, 0x00, 0x00, 0x00, 0x00, 0x00, 0x00, 0x00, 0x00,
  0x00, 0x00, 0x00, 0x00, 0x00, 0x00, 0x00, 0x00, 0x00, 0x00, 0x00, 0x00,
  0x00, 0x00, 0x00, 0x00, 0x00, 0x00, 0x00, 0x00, 0x00, 0x00, 0x00, 0x00,
  0x00, 0x00, 0x00, 0x00, 0x00, 0x00, 0x00, 0x7f, 0x00, 0x00, 0x4f, 0x00,
  0x00, 0x00, 0x00, 0x00, 0x00, 0x00, 0x00, 0x00, 0x00, 0x00, 0x00, 0x00,
  0x00, 0x00, 0x00, 0x00, 0x48, 0xce, 0xfe, 0x47, 0xca, 0x26, 0x39, 0x09,
  0xe2, 0x01, 0xea, 0xd9, 0xaf, 0x1b, 0x21, 0xb8, 0x0f, 0xe6, 0xc8, 0x27,
  0x43, 0x0d, 0x7f, 0x00, 0x2d, 0xde, 0x15, 0xc7, 0xa4, 0x00, 0x54, 0x00,
  0x00, 0x00, 0x00, 0x00, 0x00, 0x00, 0x00, 0x00, 0x00, 0x00, 0x00, 0x00,
  0x00, 0x00, 0x00, 0x00, 0x00, 0x00, 0x00, 0x00, 0x00, 0x00, 0x00, 0x00,
  0x00, 0x00, 0x00, 0x00, 0x00, 0x00, 0x00, 0x00, 0x0e, 0xe9, 0x0a, 0x00,
  0xe1, 0xfe, 0xed, 0xef, 0x11, 0x1d, 0x09, 0xf0, 0x0d, 0xea, 0x07, 0xf4,
  0x0d, 0xfe, 0xfe, 0xea, 0x0c, 0x7f, 0xf0, 0x00, 0xf2, 0xf8, 0x03, 0x00,
  0x09, 0x00, 0x01, 0x00, 0x00, 0x00, 0x00, 0x00, 0x00, 0x00, 0x00, 0x00,
  0x00, 0x00, 0x00, 0x00, 0x00, 0x00, 0x00, 0x00, 0x00, 0x00, 0x00, 0x00,
  0x00, 0x00, 0x00, 0x00, 0x00, 0x00, 0x00, 0x00, 0x00, 0x00, 0x00, 0x00,
  0xfe, 0xba, 0xc3, 0x5a, 0xc6, 0x0c, 0x5f, 0xf6, 0x24, 0xf0, 0xf4, 0xb7,
  0xba, 0xfa, 0x9d, 0xa8, 0x71, 0xe4, 0xc0, 0x5a, 0xd5, 0x19, 0x2d, 0x00,
  0x7f, 0xc8, 0x79, 0xc2, 0xa6, 0x00, 0xe1, 0x00, 0x3a, 0xd1, 0x18, 0x12,
  0xb6, 0x41, 0xf9, 0xef, 0x7f, 0x0c, 0xed, 0xf4, 0xfd, 0xf8, 0xef, 0xc6,
  0x1b, 0x72, 0xed, 0xd7, 0x1b, 0xdb, 0xe8, 0x00, 0xe0, 0xf1, 0x0b, 0xfa,
  0xcf, 0x00, 0xc6, 0x00, 0x00, 0x00, 0x00, 0x00, 0x00, 0x00, 0xfa, 0x0a,
  0x00, 0x00, 0x00, 0x7f, 0x00, 0x00, 0x00, 0x00, 0x00, 0x00, 0x00, 0x00,
  0x00, 0x00, 0x00, 0x00, 0x00, 0x00, 0x00, 0x00, 0x00, 0x06, 0x00, 0x00,
  0x00, 0x00, 0x00, 0x00, 0x00, 0x00, 0x00, 0x00, 0x00, 0x00, 0x00, 0x00,
  0x00, 0x00, 0x00, 0x00, 0x00, 0x00, 0x00, 0x00, 0x00, 0x00, 0x00, 0x00,
  0x00, 0x00, 0x00, 0x00, 0x00, 0x00, 0x00, 0x00, 0x00, 0x00, 0x00, 0x00,
  0x00, 0x00, 0x00, 0x00, 0x00, 0x00, 0x00, 0x37, 0x00, 0x00, 0x7f, 0x00,
  0x00, 0x00, 0x00, 0x00, 0x00, 0x02, 0x00, 0x00, 0x00, 0x00, 0x00, 0x00,
  0x00, 0x00, 0x00, 0x00, 0xd7, 0x5b, 0x4f, 0xcf, 0x3c, 0xb8, 0x0b, 0xd7,
  0xaf, 0x1c, 0x53, 0xae, 0x05, 0xbe, 0x5e, 0x48, 0x9b, 0xf3, 0x5a, 0xcb,
  0x2b, 0xd1, 0xf0, 0x00, 0xdf, 0x81, 0xbd, 0x2c, 0xf6, 0x00, 0xd3, 0x00,
  0xa0, 0xd1, 0xcb, 0x43, 0xd2, 0xeb, 0x5c, 0xbb, 0xd4, 0x97, 0xed, 0xf6,
  0xca, 0x54, 0x81, 0xae, 0x67, 0xe9, 0xd9, 0x1c, 0x8f, 0xaf, 0x50, 0x00,
  0x6a, 0xe6, 0x6a, 0xc0, 0xc1, 0x00, 0x1a, 0x00, 0x00, 0x00, 0x00, 0x00,
  0x00, 0x00, 0x00, 0x00, 0x00, 0x00, 0x00, 0x00, 0x00, 0x00, 0x00, 0x00,
  0x00, 0x00, 0x00, 0x00, 0x00, 0x00, 0x00, 0x00, 0x00, 0x00, 0x00, 0x00,
  0x00, 0x00, 0x00, 0x00, 0x98, 0x0c, 0xaf, 0x04, 0x32, 0x7f, 0x0e, 0x52,
  0x53, 0x91, 0x4e, 0x27, 0xfc, 0xd9, 0xee, 0xa1, 0xdf, 0x13, 0x6e, 0xd5,
  0xc9, 0xe9, 0x1b, 0x00, 0xd2, 0xde, 0xe1, 0x44, 0xe1, 0x01, 0xc5, 0x00,
  0x00, 0x00, 0x00, 0x00, 0x02, 0x00, 0x00, 0x00, 0x06, 0x00, 0xfa, 0x7f,
  0x00, 0x00, 0x00, 0xf2, 0x00, 0x00, 0x0e, 0x00, 0x00, 0x00, 0x00, 0x00,
  0x00, 0x00, 0x00, 0xa6, 0x00, 0x01, 0x00, 0x00, 0xe2, 0xda, 0xff, 0xff,
  0x04, 0x00, 0x00, 0x00, 0xc0, 0x00, 0x00, 0x00, 0x58, 0x0a, 0x00, 0x00,
  0x00, 0x00, 0x00, 0xc0, 0x00, 0x00, 0x00, 0xc0, 0x28, 0x2a, 0x00, 0x00,
  0x9b, 0xe9, 0xff, 0xff, 0x9b, 0x07, 0x00, 0x00, 0x40, 0x1c, 0xed, 0xc8,
  0x61, 0xd4, 0xff, 0xff, 0xd2, 0xfe, 0xff, 0xff, 0xc0, 0x08, 0x00, 0x00,
  0x40, 0xb3, 0x56, 0xf9, 0x00, 0x00, 0x00, 0xc0, 0x86, 0x16, 0x00, 0x00,
  0x70, 0x13, 0x00, 0x00, 0x07, 0xf9, 0xff, 0xff, 0x62, 0xf9, 0xff, 0xff,
  0xc5, 0x01, 0x00, 0x00, 0x5c, 0xfd, 0xff, 0xff, 0x37, 0xf6, 0xff, 0xff,
  0xf6, 0x2c, 0x00, 0x00, 0xc1, 0x01, 0x00, 0x00, 0xf3, 0x07, 0x00, 0x00,
  0x14, 0xcb, 0xff, 0xff, 0xe5, 0x21, 0x00, 0x00, 0xc1, 0x0c, 0x00, 0x00,
  0x58, 0x6b, 0xc3, 0xf9, 0x00, 0x00, 0x00, 0xc0, 0x93, 0x02, 0x00, 0x00,
  0xe9, 0x0f, 0x00, 0x00, 0xd7, 0x15, 0x00, 0x00, 0x00, 0x00, 0x00, 0xc0,
  0x00, 0x00, 0x00, 0xc0, 0x40, 0x00, 0x00, 0xc0, 0xf1, 0xdf, 0xd8, 0xff,
  0x59, 0xef, 0xff, 0xff, 0x20, 0xe8, 0x65, 0xe3, 0xb4, 0x02, 0x00, 0x00,
  0x00, 0x00, 0x00, 0xc0, 0xf0, 0xf8, 0xff, 0xff, 0xcb, 0x0c, 0x00, 0x00,
  0xab, 0xf8, 0xf0, 0xff, 0x00, 0x00, 0x00, 0xc0, 0x83, 0x0b, 0xd8, 0xff,
  0xa4, 0x16, 0x00, 0x00, 0x41, 0xf1, 0xff, 0xff, 0x70, 0xbd, 0xd1, 0xf5,
  0xde, 0x09, 0x00, 0x00, 0x18, 0x02, 0xa0, 0xff, 0xae, 0xdb, 0xff, 0xff,
  0x04, 0x00, 0x00, 0x00, 0xf0, 0x00, 0x00, 0x00, 0x2c, 0x00, 0x00, 0xc9,
  0x81, 0x81, 0x00, 0x81, 0x81, 0x7f, 0x00, 0x00, 0x7f, 0x0e, 0x81, 0xb6,
  0x5e, 0x27, 0x7d, 0xfc, 0x82, 0xb1, 0x68, 0x1c, 0x7f, 0x00, 0x00, 0xfa,
  0x09, 0x07, 0x00, 0x00, 0x00, 0x00, 0xdd, 0x00, 0xff, 0x00, 0x81, 0xf7,
  0x00, 0x00, 0x00, 0x59, 0xba, 0x00, 0x4e, 0xe9, 0x8b, 0x00, 0x00, 0xce,
  0xb3, 0xf9, 0x00, 0x8f, 0xa7, 0x38, 0x00, 0x00, 0x61, 0x13, 0xb9, 0x98,
  0x6e, 0x15, 0x79, 0x51, 0xa5, 0xb5, 0x7f, 0x42, 0x57, 0x00, 0x00, 0xc8,
  0x12, 0x08, 0x00, 0x00, 0x00, 0x00, 0x97, 0x00, 0x11, 0x00, 0xe7, 0x05,
  0xff, 0x00, 0x00, 0x14, 0x81, 0x00, 0x4a, 0xe0, 0x81, 0x00, 0x00, 0x1c,
  0x83, 0x13, 0x00, 0xbe, 0xad, 0xc0, 0x00, 0x00, 0x50, 0x7f, 0xb8, 0xd1,
  0x74, 0x7f, 0x59, 0x65, 0xad, 0xc1, 0x73, 0x7f, 0x76, 0x00, 0x00, 0xc4,
  0x7f, 0x7f, 0x00, 0x00, 0x00, 0x00, 0x9a, 0x00, 0x7f, 0x00, 0xe9, 0x7f,
  0x00, 0x00, 0x00, 0x31, 0xa5, 0x00, 0x6b, 0xd1, 0x30, 0x00, 0x00, 0x53,
  0x3e, 0xfb, 0x00, 0x96, 0x9d, 0xf4, 0x00, 0x00, 0x54, 0x07, 0xb4, 0x81,
  0x79, 0x0d, 0x7f, 0xa7, 0x9e, 0xa6, 0x63, 0xf3, 0x69, 0x00, 0x00, 0x7f,
  0x0e, 0xff, 0x00, 0x00, 0x00, 0x00, 0x9f, 0x00, 0x16, 0x00, 0xeb, 0x02,
  0xff, 0x00, 0x00, 0x7f, 0x90, 0x00, 0x58, 0xae, 0x40, 0x00, 0x00, 0x7f,
  0x3e, 0x9a, 0x00, 0xa0, 0x8a, 0xfe, 0x00, 0x00, 0x7a, 0x09, 0x99, 0xc8,
  0x7f, 0x25, 0x2d, 0x81, 0x81, 0x81, 0x58, 0x2d, 0x7a, 0xfe, 0x00, 0x34,
  0xfa, 0x03, 0x00, 0x00, 0x00, 0x00, 0x81, 0x00, 0x08, 0x00, 0x8c, 0xf1,
  0xfa, 0x00, 0x00, 0x21, 0xae, 0x00, 0x7f, 0x98, 0xaa, 0xdc, 0xff, 0xff,
  0x04, 0x00, 0x00, 0x00, 0xc0, 0x00, 0x00, 0x00, 0x00, 0x00, 0x00, 0x00,
  0x00, 0x00, 0x00, 0x00, 0x00, 0x00, 0x00, 0x00, 0x00, 0x00, 0x00, 0x00,
  0x00, 0x00, 0x00, 0x00, 0x00, 0x00, 0x00, 0x00, 0x00, 0x00, 0x00, 0x00,
  0x00, 0x00, 0x00, 0x00, 0x00, 0x00, 0x00, 0x00, 0x00, 0x00, 0x00, 0x00,
  0x00, 0x00, 0x00, 0x00, 0x00, 0x00, 0x00, 0x00, 0x00, 0x00, 0x00, 0x00,
  0x00, 0x00, 0x00, 0x00, 0x00, 0x00, 0x00, 0x00, 0x00, 0x00, 0x00, 0x00,
  0x00, 0x00, 0x00, 0x00, 0x00, 0x00, 0x00, 0x00, 0x00, 0x00, 0x00, 0x00,
  0x00, 0x00, 0x00, 0x00, 0x00, 0x00, 0x00, 0x00, 0x00, 0x00, 0x00, 0x00,
  0x00, 0x00, 0x00, 0x00, 0x00, 0x00, 0x00, 0x00, 0x00, 0x00, 0x00, 0x00,
  0x00, 0x00, 0x00, 0x00, 0x00, 0x00, 0x00, 0x00, 0x00, 0x00, 0x00, 0x00,
  0x00, 0x00, 0x00, 0x00, 0x00, 0x00, 0x00, 0x00, 0x00, 0x00, 0x00, 0x00,
  0x00, 0x00, 0x00, 0x00, 0x00, 0x00, 0x00, 0x00, 0x00, 0x00, 0x00, 0x00,
  0x00, 0x00, 0x00, 0x00, 0x00, 0x00, 0x00, 0x00, 0x00, 0x00, 0x00, 0x00,
  0x00, 0x00, 0x00, 0x00, 0x00, 0x00, 0x00, 0x00, 0x00, 0x00, 0x00, 0x00,
  0x00, 0x00, 0x00, 0x00, 0x00, 0x00, 0x00, 0x00, 0x00, 0x00, 0x00, 0x00,
  0x00, 0x00, 0x00, 0x00, 0x00, 0x00, 0x00, 0x00, 0x00, 0x00, 0x00, 0x00,
  0x00, 0x00, 0x00, 0x00, 0x00, 0x00, 0x00, 0x00, 0x76, 0xdd, 0xff, 0xff,
  0x04, 0x00, 0x00, 0x00, 0x30, 0x00, 0x00, 0x00, 0xf7, 0x66, 0x5f, 0x12,
  0xf7, 0x10, 0x7c, 0x5f, 0x3d, 0xf9, 0x54, 0x6b, 0xd1, 0xc1, 0x35, 0x0a,
  0xd2, 0xfb, 0x4c, 0x22, 0x22, 0xfa, 0x68, 0xe5, 0x19, 0x69, 0x5a, 0x34,
  0xf7, 0xe4, 0x78, 0x77, 0x7f, 0x2b, 0x00, 0x74, 0x03, 0x5a, 0x33, 0x28,
  0x5b, 0x6e, 0x49, 0xe0, 0x4a, 0x4c, 0xf9, 0x5a, 0xb2, 0xdd, 0xff, 0xff,
  0x04, 0x00, 0x00, 0x00, 0x30, 0x00, 0x00, 0x00, 0x2e, 0xe6, 0xe5, 0xb3,
  0x29, 0x3e, 0xfc, 0x3f, 0x48, 0x07, 0xdc, 0xeb, 0xe1, 0xc3, 0x7f, 0x61,
  0x80, 0xa5, 0xdc, 0xed, 0x3e, 0x22, 0xc8, 0xec, 0xcb, 0xe1, 0xe8, 0xd4,
  0xc4, 0xe4, 0xda, 0xec, 0xea, 0xe0, 0x38, 0xe7, 0xcb, 0xee, 0x33, 0xc5,
  0xdb, 0xec, 0xe0, 0xeb, 0x56, 0xe3, 0xcf, 0xec, 0xee, 0xdd, 0xff, 0xff,
  0x04, 0x00, 0x00, 0x00, 0x40, 0x02, 0x00, 0x00, 0xdf, 0x42, 0x08, 0xfa,
  0xef, 0x1e, 0xe1, 0x52, 0x5c, 0x07, 0x31, 0xf0, 0xe3, 0xf1, 0x3d, 0xbd,
  0xf2, 0x2c, 0x11, 0xfc, 0x51, 0xd7, 0xa1, 0xe0, 0x81, 0x31, 0x27, 0xd0,
  0xef, 0x18, 0x22, 0x12, 0x08, 0xf6, 0x4f, 0x3f, 0xf2, 0xff, 0x40, 0x08,
  0x1e, 0x04, 0xfc, 0xc1, 0x29, 0xec, 0x1c, 0x19, 0xa6, 0xfe, 0xfe, 0x2d,
  0xcd, 0x1f, 0xf9, 0xad, 0xef, 0xee, 0x02, 0xbe, 0xe6, 0x2b, 0x29, 0x1f,
  0x49, 0x38, 0x7f, 0x07, 0xef, 0xde, 0x1d, 0x13, 0x1f, 0x39, 0xf3, 0xe8,
  0x37, 0x1f, 0x0b, 0xbe, 0x3a, 0x18, 0xba, 0x0c, 0x0c, 0xef, 0xd4, 0xae,
  0x04, 0xd2, 0x0f, 0x3a, 0x5b, 0x07, 0x2e, 0x1d, 0x85, 0xaf, 0x3a, 0x60,
  0x93, 0xcf, 0xf0, 0x26, 0x08, 0x2d, 0x13, 0x00, 0x0c, 0xf8, 0x22, 0xf5,
  0x4d, 0x4e, 0xb6, 0x8d, 0x2c, 0xbb, 0xe7, 0x93, 0xc3, 0x16, 0x01, 0x11,
  0x47, 0x17, 0x81, 0x2a, 0xd2, 0x82, 0x1e, 0xd9, 0x01, 0x47, 0x25, 0xf1,
  0x24, 0x3f, 0xd3, 0x30, 0x29, 0x0a, 0xf1, 0x2a, 0x7f, 0x21, 0x3a, 0x13,
  0x34, 0xef, 0x22, 0xd7, 0x00, 0x23, 0x1d, 0xea, 0x3d, 0x31, 0xc2, 0x37,
  0x02, 0x24, 0xd8, 0x1b, 0xdb, 0x34, 0x6a, 0x2c, 0x2d, 0x2b, 0xde, 0x15,
  0x15, 0x32, 0x2d, 0x05, 0x10, 0x16, 0x0a, 0x0a, 0x30, 0xfb, 0x04, 0x05,
  0x08, 0x12, 0xfa, 0xf5, 0xeb, 0x26, 0x10, 0x38, 0x7f, 0xfa, 0xfb, 0x0a,
  0xeb, 0x78, 0xfb, 0xf2, 0x1f, 0x96, 0x10, 0xe1, 0xb9, 0xcf, 0xa0, 0x4e,
  0xff, 0xb9, 0xc8, 0x35, 0xf7, 0x34, 0x3f, 0x85, 0xee, 0xae, 0xa5, 0x04,
  0xe6, 0x7b, 0xbb, 0xe4, 0x06, 0x32, 0xe4, 0xd9, 0x4b, 0xff, 0x28, 0x10,
  0x0b, 0x10, 0xd9, 0xba, 0xc7, 0x22, 0xf3, 0x27, 0x21, 0x22, 0xd4, 0xbc,
  0xfe, 0x15, 0x0a, 0x03, 0x18, 0xd8, 0x19, 0xf0, 0xcb, 0xa8, 0x7f, 0xef,
  0x9c, 0x11, 0xb2, 0x0a, 0xfc, 0xe9, 0x12, 0xa0, 0x2d, 0xcb, 0xc1, 0xed,
  0xd1, 0x0b, 0x0c, 0x21, 0xe8, 0xb9, 0x14, 0x09, 0xfa, 0xc2, 0xfc, 0x0a,
  0x06, 0xed, 0xe5, 0xb7, 0x3f, 0x23, 0xaf, 0xc3, 0x81, 0x24, 0x46, 0x14,
  0xfe, 0xfc, 0x20, 0x46, 0x62, 0x16, 0x2d, 0x2a, 0x40, 0x30, 0xf2, 0xed,
  0x7b, 0x4d, 0x6b, 0x3c, 0x49, 0x55, 0xb0, 0x49, 0x0c, 0xfc, 0x0d, 0x0a,
  0xec, 0xb2, 0xe9, 0x60, 0x1d, 0x1a, 0x0a, 0x57, 0xec, 0xfb, 0x32, 0xb8,
  0x1a, 0x01, 0x2e, 0x0f, 0x21, 0x54, 0x7f, 0x4d, 0x5e, 0x20, 0xec, 0x20,
  0x66, 0x1d, 0xfb, 0xfd, 0xd3, 0xfe, 0xbc, 0xf4, 0xf3, 0xb7, 0x4c, 0x18,
  0xdf, 0x81, 0xab, 0x0a, 0xe3, 0xe9, 0x2c, 0x22, 0x66, 0x05, 0x29, 0xdf,
  0xea, 0xe9, 0x0e, 0x4a, 0x5a, 0xfc, 0x1b, 0xa6, 0x1a, 0x86, 0xe4, 0xab,
  0x3d, 0xb1, 0x16, 0x18, 0x44, 0x82, 0xf9, 0xe3, 0x37, 0xf8, 0x28, 0xfa,
  0x2b, 0x38, 0x29, 0x05, 0xd0, 0xdf, 0xd2, 0xe6, 0xdb, 0xb6, 0x34, 0x25,
  0xc4, 0xe5, 0xa7, 0x09, 0x04, 0x21, 0x43, 0x8d, 0x1d, 0x03, 0xe8, 0xf7,
  0xb4, 0xa9, 0xfd, 0xd6, 0xdf, 0x04, 0x01, 0x19, 0xd9, 0xfc, 0xe5, 0xd3,
  0x1d, 0x0c, 0xd9, 0xe0, 0x11, 0xfb, 0x81, 0xe7, 0xb9, 0x2c, 0x62, 0xeb,
  0x29, 0xc1, 0x18, 0x66, 0x03, 0xd1, 0xec, 0x2b, 0xea, 0x8a, 0x0e, 0x2c,
  0x2c, 0x73, 0xea, 0x0f, 0x2f, 0xf4, 0x81, 0xf8, 0x47, 0x14, 0x23, 0xe0,
  0x58, 0x15, 0xf9, 0xfe, 0xf9, 0x0f, 0x11, 0xef, 0xaf, 0x2b, 0x11, 0x57,
  0xfb, 0x0b, 0xf0, 0x94, 0x1c, 0xfa, 0x53, 0x0b, 0xd7, 0x0d, 0xd6, 0x3a,
  0x09, 0xcf, 0x12, 0xeb, 0xf3, 0x0a, 0xe7, 0xee, 0x2e, 0x25, 0x10, 0xfb,
  0xfa, 0xf7, 0x15, 0x07, 0x12, 0xc5, 0x9f, 0x0f, 0xcf, 0xf9, 0xd6, 0x44,
  0x0f, 0x7f, 0xe9, 0xf2, 0x00, 0xe2, 0x0d, 0x0c, 0x3a, 0x06, 0x0d, 0x31,
  0x01, 0xc8, 0x09, 0xe0, 0x4b, 0xf1, 0x10, 0xfc, 0xd1, 0xc3, 0x78, 0xad,
  0x19, 0x7c, 0xe2, 0x69, 0xe3, 0x19, 0xdc, 0xbd, 0x23, 0x29, 0xe3, 0x3c,
  0x57, 0x03, 0x13, 0xed, 0xc4, 0xe8, 0x81, 0x26, 0x71, 0x9b, 0x52, 0xff,
  0x0f, 0xb3, 0x00, 0xf5, 0x3a, 0x10, 0x08, 0x32, 0xb0, 0x4d, 0xca, 0xca,
  0xe2, 0x0a, 0xd4, 0xac, 0xbb, 0xed, 0x72, 0x01, 0x3a, 0xe0, 0xff, 0xff,
  0x04, 0x00, 0x00, 0x00, 0x30, 0x00, 0x00, 0x00, 0xbb, 0x01, 0x00, 0x00,
  0xdf, 0xf1, 0xff, 0xff, 0xd1, 0xf8, 0xff, 0xff, 0x80, 0xf6, 0xff, 0xff,
  0x44, 0xfe, 0xff, 0xff, 0x85, 0xfb, 0xff, 0xff, 0xf5, 0x18, 0x00, 0x00,
  0x7d, 0x08, 0x00, 0x00, 0x09, 0x0b, 0x00, 0x00, 0xc0, 0x0a, 0x00, 0x00,
  0x52, 0x09, 0x00, 0x00, 0x15, 0x0b, 0x00, 0x00, 0x76, 0xe0, 0xff, 0xff,
  0x04, 0x00, 0x00, 0x00, 0x40, 0x02, 0x00, 0x00, 0xfb, 0x21, 0xe8, 0x58,
  0x09, 0x10, 0xfc, 0x55, 0x40, 0xa0, 0x81, 0x44, 0x1e, 0xbf, 0xc5, 0x81,
  0xe4, 0x8c, 0xcf, 0x05, 0xb9, 0xcf, 0x0a, 0x4e, 0xfd, 0xc8, 0x09, 0x58,
  0x81, 0xc6, 0xea, 0xce, 0xf9, 0x42, 0x3d, 0x1a, 0x15, 0x4c, 0x4d, 0xba,
  0xf6, 0xfc, 0x1d, 0x81, 0x42, 0x17, 0xba, 0xe5, 0xbb, 0xee, 0xf4, 0x06,
  0x7f, 0x50, 0x25, 0x97, 0x29, 0x02, 0xd4, 0xeb, 0x99, 0x78, 0x07, 0x7f,
  0x2c, 0x38, 0x46, 0x0a, 0x25, 0x3e, 0xe1, 0xe2, 0xb0, 0xee, 0xc9, 0x81,
  0xcb, 0x3b, 0xe5, 0xb7, 0x36, 0x34, 0x10, 0xe1, 0x1a, 0xe8, 0xfb, 0x81,
  0xb4, 0xd3, 0x06, 0xed, 0xa9, 0x08, 0xff, 0xe4, 0xf7, 0x0b, 0x40, 0xb3,
  0xa6, 0xf9, 0x81, 0xec, 0x18, 0xce, 0xe4, 0xd8, 0x69, 0xba, 0xbc, 0x0a,
  0x81, 0xfd, 0xf0, 0xd7, 0xbd, 0x04, 0x19, 0x3c, 0x1d, 0x2b, 0xcd, 0x18,
  0xd7, 0x7f, 0x34, 0x40, 0x61, 0x3a, 0x14, 0x4a, 0xe8, 0xe1, 0x84, 0xf8,
  0xed, 0x1c, 0x05, 0xc3, 0x7f, 0xe7, 0x15, 0x0f, 0x43, 0x96, 0xdf, 0x0d,
  0x5a, 0x25, 0x7f, 0x90, 0xc3, 0x14, 0x17, 0x22, 0xfe, 0x03, 0x0d, 0x0f,
  0x63, 0xcf, 0x44, 0xd1, 0x7f, 0xe9, 0xeb, 0x17, 0xeb, 0x2f, 0x34, 0xf8,
  0x41, 0xaa, 0x7f, 0xa4, 0xae, 0xfb, 0x3d, 0x64, 0xfa, 0xd9, 0xc9, 0x18,
  0x64, 0x43, 0x82, 0xf5, 0x0b, 0xd1, 0xaf, 0x81, 0x81, 0x40, 0xc9, 0xa2,
  0x19, 0xde, 0xbe, 0x32, 0x47, 0xe4, 0xa1, 0xb1, 0x56, 0x78, 0xfe, 0x2d,
  0xa8, 0x7f, 0xe4, 0xe5, 0x48, 0xec, 0x98, 0xe6, 0x37, 0xbc, 0x6f, 0xaf,
  0x09, 0x7f, 0xe1, 0x0b, 0xe3, 0xef, 0x32, 0xe5, 0xf3, 0xff, 0x1f, 0x9b,
  0x7f, 0x28, 0x34, 0x50, 0x38, 0x0e, 0xed, 0xc9, 0xc9, 0x84, 0x46, 0xae,
  0xed, 0xe3, 0x81, 0xd1, 0x2c, 0xd1, 0x98, 0xb1, 0x1b, 0x64, 0xa7, 0x5d,
  0xcd, 0x73, 0x13, 0x36, 0x7a, 0x1d, 0x89, 0x7f, 0x31, 0xfd, 0x28, 0xb6,
  0xf0, 0x96, 0xed, 0x81, 0xf0, 0xd7, 0xe1, 0xef, 0x6d, 0xc3, 0xd1, 0xfc,
  0xef, 0x98, 0x7f, 0x1d, 0x21, 0x72, 0x05, 0x93, 0x9f, 0x6d, 0xff, 0x16,
  0x3f, 0x0e, 0xb4, 0xe4, 0x7f, 0x87, 0xfa, 0xdb, 0x57, 0xaa, 0x7f, 0x5d,
  0xfc, 0xd9, 0x4f, 0x37, 0xd4, 0x11, 0x1a, 0x1a, 0xce, 0xfc, 0x9d, 0xfa,
  0x82, 0x4b, 0x3b, 0x4c, 0x7f, 0x91, 0x3e, 0xf6, 0xd7, 0x44, 0x65, 0x9a,
  0xf4, 0xcb, 0x4f, 0x11, 0xe7, 0xe0, 0xfa, 0x7f, 0xed, 0x29, 0x3d, 0xc8,
  0x2c, 0x24, 0x14, 0x17, 0x7f, 0x60, 0xaa, 0xd9, 0x06, 0x6b, 0x0c, 0x21,
  0x7d, 0xb1, 0x7f, 0x3d, 0x73, 0x1f, 0x1d, 0x32, 0xeb, 0xbf, 0xab, 0xf2,
  0xc4, 0x92, 0xc5, 0x15, 0xac, 0x6b, 0xa8, 0x7f, 0xe6, 0xec, 0x81, 0xd9,
  0x02, 0x4e, 0xe3, 0xcc, 0xd9, 0x0b, 0xf9, 0x03, 0x48, 0x0f, 0x2a, 0x81,
  0xbb, 0xc6, 0x5f, 0x4a, 0x65, 0x34, 0xc5, 0xd4, 0xd5, 0x1c, 0x01, 0x06,
  0x2b, 0xc5, 0x4a, 0x81, 0xa4, 0x6b, 0xf7, 0x0f, 0x0b, 0x7f, 0x36, 0xd8,
  0x1e, 0xeb, 0x5b, 0xa9, 0xa7, 0x13, 0x22, 0xdb, 0x07, 0x63, 0x40, 0xee,
  0x40, 0x7f, 0xfc, 0xc7, 0x2d, 0x8f, 0x11, 0x20, 0x03, 0xf5, 0x0b, 0x02,
  0xd7, 0xef, 0x4e, 0x0f, 0x55, 0x81, 0xd7, 0x57, 0xf2, 0x2b, 0xe7, 0x00,
  0x1e, 0x14, 0xfc, 0x25, 0x44, 0xe5, 0xe7, 0x81, 0x20, 0x7d, 0x10, 0xda,
  0xc3, 0x72, 0x48, 0xfb, 0x1d, 0x1c, 0x4f, 0x7f, 0xb7, 0xd3, 0x26, 0x88,
  0xbc, 0x81, 0x52, 0x37, 0x4e, 0xbe, 0xc7, 0x70, 0x36, 0xdd, 0xfb, 0x6e,
  0xd4, 0x7f, 0x3f, 0xf9, 0x84, 0x21, 0xee, 0x60, 0x02, 0x0e, 0xcb, 0x09,
  0x0d, 0xe3, 0xde, 0xff, 0x3e, 0xe9, 0x81, 0x2a, 0x7f, 0x0d, 0x02, 0x03,
  0x7b, 0xc5, 0x39, 0x2e, 0xff, 0xed, 0x99, 0xf7, 0x39, 0xd8, 0xb8, 0xb8,
  0xac, 0x81, 0x68, 0xfb, 0x9e, 0x71, 0x0b, 0xba, 0x71, 0xa2, 0x7f, 0x99,
  0x37, 0xb6, 0x4b, 0xb6, 0xca, 0x11, 0xe6, 0x67, 0xe8, 0xbb, 0xdd, 0x8f,
  0xcd, 0xa8, 0xd0, 0xdc, 0x81, 0x86, 0x08, 0x3e, 0x07, 0xf8, 0x81, 0xbc,
  0x07, 0x83, 0xf3, 0x55, 0xbf, 0x16, 0xa7, 0xeb, 0xe0, 0x30, 0xc9, 0x81,
  0x2c, 0x35, 0xbc, 0xba, 0x47, 0xdb, 0x0e, 0x2c, 0xc2, 0xe2, 0xff, 0xff,
  0x04, 0x00, 0x00, 0x00, 0xc0, 0x00, 0x00, 0x00, 0x8b, 0x35, 0x00, 0x00,
  0x80, 0x59, 0x00, 0x00, 0xd4, 0x77, 0x00, 0x00, 0x34, 0x76, 0x00, 0x00,
  0x05, 0x49, 0x00, 0x00, 0x7a, 0x5a, 0x00, 0x00, 0xa5, 0x3e, 0x00, 0x00,
  0x52, 0x33, 0x00, 0x00, 0x1c, 0x37, 0x00, 0x00, 0x82, 0x31, 0x00, 0x00,
  0x9c, 0x74, 0x00, 0x00, 0x3d, 0x49, 0x00, 0x00, 0x25, 0x46, 0x00, 0x00,
  0x24, 0x39, 0x00, 0x00, 0xb6, 0x2f, 0x00, 0x00, 0x37, 0x2e, 0x00, 0x00,
  0x42, 0x43, 0x00, 0x00, 0xa0, 0x49, 0x00, 0x00, 0x2e, 0x5b, 0x00, 0x00,
  0x99, 0x4d, 0x00, 0x00, 0x87, 0x3a, 0x00, 0x00, 0xaf, 0x77, 0x00, 0x00,
  0x76, 0x44, 0x00, 0x00, 0xe2, 0x54, 0x00, 0x00, 0x50, 0x3a, 0x00, 0x00,
  0xba, 0x5a, 0x00, 0x00, 0xf6, 0x87, 0x00, 0x00, 0x14, 0x67, 0x00, 0x00,
  0xbd, 0x34, 0x00, 0x00, 0xbd, 0x76, 0x00, 0x00, 0x9c, 0x53, 0x00, 0x00,
  0xf9, 0x47, 0x00, 0x00, 0x2e, 0x7a, 0x00, 0x00, 0xa6, 0x51, 0x00, 0x00,
  0xe1, 0x31, 0x00, 0x00, 0xf3, 0x46, 0x00, 0x00, 0x36, 0x4b, 0x00, 0x00,
  0x33, 0x3d, 0x00, 0x00, 0xb4, 0x51, 0x00, 0x00, 0x96, 0x62, 0x00, 0x00,
  0x63, 0x56, 0x00, 0x00, 0x08, 0x45, 0x00, 0x00, 0x38, 0x51, 0x00, 0x00,
  0x0e, 0x50, 0x00, 0x00, 0xb1, 0x42, 0x00, 0x00, 0xd3, 0x40, 0x00, 0x00,
  0xf9, 0x43, 0x00, 0x00, 0xb4, 0x45, 0x00, 0x00, 0x8e, 0xe3, 0xff, 0xff,
  0x04, 0x00, 0x00, 0x00, 0x00, 0x0c, 0x00, 0x00, 0xf2, 0x00, 0x00, 0xf1,
  0x00, 0xf1, 0x00, 0x01, 0xfd, 0xff, 0x00, 0x00, 0x1b, 0x7f, 0x17, 0xf4,
  0xf3, 0xf3, 0x0e, 0x29, 0x01, 0xfe, 0xea, 0xdc, 0xe5, 0x00, 0x00, 0xdc,
  0xa4, 0xf9, 0x00, 0x00, 0x00, 0x00, 0x17, 0x00, 0x01, 0x00, 0x0c, 0x05,
  0x00, 0x00, 0x00, 0xef, 0x07, 0x00, 0xee, 0x00, 0x00, 0x00, 0x00, 0x00,
  0x00, 0x00, 0x00, 0x00, 0x00, 0x00, 0x00, 0x00, 0x00, 0x00, 0x00, 0x00,
  0x00, 0x00, 0x00, 0x00, 0x00, 0x00, 0x00, 0x00, 0x00, 0x00, 0x00, 0x00,
  0x00, 0x00, 0x00, 0x00, 0x00, 0x00, 0x00, 0x00, 0x00, 0x00, 0x00, 0x00,
  0x00, 0x00, 0x00, 0x00, 0x00, 0x00, 0x00, 0x00, 0x23, 0x00, 0x00, 0xcc,
  0x2a, 0x1c, 0x00, 0xcd, 0xf9, 0xc9, 0x00, 0x00, 0x10, 0x81, 0x99, 0x46,
  0x0a, 0x3d, 0xf5, 0xf8, 0x02, 0x1e, 0x03, 0xdb, 0x34, 0x00, 0x00, 0xa3,
  0x8d, 0x89, 0x00, 0x00, 0x00, 0x00, 0x03, 0x00, 0xfa, 0x00, 0xc7, 0xb6,
  0x00, 0x00, 0x00, 0xa5, 0xa1, 0x00, 0x37, 0x00, 0x00, 0x00, 0x00, 0x00,
  0x00, 0x00, 0x00, 0x00, 0x00, 0x00, 0x00, 0x00, 0x00, 0x00, 0x00, 0x00,
  0x00, 0x00, 0x00, 0x00, 0x00, 0x00, 0x00, 0x00, 0x00, 0x00, 0x00, 0x00,
  0x00, 0x00, 0x00, 0x00, 0x00, 0x00, 0x00, 0x00, 0x00, 0x00, 0x00, 0x00,
  0x00, 0x00, 0x00, 0x00, 0x00, 0x00, 0x00, 0x00, 0x18, 0x00, 0x00, 0xdd,
  0x1b, 0x58, 0x00, 0xd2, 0xf1, 0x9d, 0x00, 0x00, 0x20, 0xb7, 0x0f, 0x35,
  0xf7, 0x24, 0xd8, 0x06, 0xff, 0x51, 0xf5, 0xe9, 0x30, 0x00, 0x00, 0xf5,
  0xb9, 0xb4, 0x00, 0x00, 0x00, 0x00, 0x40, 0x00, 0xeb, 0x00, 0xdf, 0xab,
  0x00, 0x00, 0x00, 0x81, 0xab, 0x00, 0xf7, 0x00, 0x00, 0x00, 0x00, 0x00,
  0x00, 0x00, 0x00, 0x00, 0x00, 0xfe, 0x00, 0x00, 0x03, 0xee, 0xf5, 0x00,
  0x00, 0x07, 0x00, 0x00, 0x00, 0x00, 0x00, 0xed, 0xff, 0x00, 0x00, 0x00,
  0xfe, 0x81, 0x00, 0x00, 0x00, 0x00, 0xff, 0x00, 0x00, 0x00, 0xff, 0x00,
  0x00, 0x00, 0x00, 0xff, 0x00, 0x00, 0x00, 0x00, 0xe7, 0x00, 0x00, 0xd0,
  0x0e, 0x6a, 0x00, 0xd4, 0xef, 0xac, 0x00, 0x00, 0x1c, 0xaf, 0xff, 0x28,
  0xef, 0x13, 0xdb, 0x02, 0x03, 0x45, 0xed, 0xe2, 0x2d, 0x00, 0x00, 0xdd,
  0xae, 0xbd, 0x00, 0x00, 0x00, 0x00, 0x18, 0x00, 0x18, 0x00, 0xf7, 0xc8,
  0x00, 0x00, 0x00, 0x81, 0xc7, 0x00, 0xeb, 0x00, 0xf4, 0x00, 0x00, 0xcf,
  0x24, 0x0a, 0x00, 0xfc, 0x0c, 0xc7, 0x00, 0x00, 0xfa, 0x1e, 0xd9, 0x02,
  0xf1, 0xe9, 0xe9, 0x12, 0x03, 0xfa, 0x06, 0xd7, 0xfc, 0x00, 0x00, 0x0c,
  0x34, 0x2c, 0x00, 0x00, 0x00, 0x00, 0xc4, 0x00, 0xe0, 0x00, 0xc5, 0x7f,
  0x00, 0x00, 0x00, 0xe1, 0xd0, 0x00, 0xeb, 0x00, 0x00, 0x00, 0x00, 0x00,
  0x00, 0x00, 0x00, 0x00, 0x00, 0x00, 0x00, 0x00, 0x00, 0x00, 0x00, 0x00,
  0x00, 0x00, 0x00, 0x00, 0x00, 0x00, 0x00, 0x00, 0x00, 0x00, 0x00, 0x00,
  0x00, 0x00, 0x00, 0x00, 0x00, 0x00, 0x00, 0x00, 0x00, 0x00, 0x00, 0x00,
  0x00, 0x00, 0x00, 0x00, 0x00, 0x00, 0x00, 0x00, 0x00, 0x00, 0x00, 0x00,
  0x00, 0x00, 0x00, 0x00, 0x00, 0x00, 0x00, 0x00, 0x00, 0x00, 0x00, 0x00,
  0x00, 0x00, 0x00, 0x00, 0x00, 0x00, 0x00, 0x00, 0x00, 0x00, 0x00, 0x00,
  0x00, 0x00, 0x00, 0x00, 0x00, 0x00, 0x00, 0x00, 0x00, 0x00, 0x00, 0x00,
  0x00, 0x00, 0x00, 0x00, 0x00, 0x00, 0x00, 0x00, 0x00, 0x00, 0x00, 0x00,
  0x00, 0x00, 0x00, 0x00, 0x00, 0x00, 0x00, 0x00, 0x00, 0x00, 0x00, 0x00,
  0x00, 0x00, 0x00, 0x00, 0x00, 0x00, 0x00, 0x00, 0x00, 0x00, 0x00, 0x00,
  0x00, 0x00, 0x00, 0x00, 0x00, 0x00, 0x00, 0x00, 0x00, 0x00, 0x00, 0x00,
  0x00, 0x00, 0x00, 0x00, 0x00, 0x00, 0x00, 0x00, 0x00, 0x00, 0x00, 0x00,
  0x00, 0x00, 0x00, 0x00, 0x00, 0x00, 0x00, 0x00, 0x00, 0x00, 0x00, 0x00,
  0x00, 0x00, 0x00, 0x00, 0x00, 0x00, 0x00, 0x00, 0x00, 0x00, 0x00, 0x00,
  0x00, 0x00, 0x00, 0x00, 0x00, 0x00, 0x00, 0x00, 0x00, 0x00, 0x00, 0x00,
  0x00, 0x00, 0x00, 0x00, 0x00, 0x00, 0x00, 0x00, 0x00, 0x00, 0x00, 0x00,
  0x00, 0x00, 0x00, 0x00, 0x00, 0x00, 0x00, 0x00, 0x00, 0x00, 0x00, 0x00,
  0x00, 0x00, 0x00, 0x00, 0x00, 0x00, 0x00, 0x00, 0x00, 0x00, 0x00, 0x00,
  0x00, 0x00, 0x00, 0x00, 0x00, 0x00, 0x00, 0x00, 0x00, 0x00, 0x00, 0x00,
  0x00, 0x00, 0x00, 0x00, 0x00, 0x00, 0x00, 0x00, 0x05, 0x00, 0x00, 0xe5,
  0x23, 0xf5, 0x00, 0xff, 0x0c, 0xed, 0x00, 0x00, 0x16, 0xe7, 0xcb, 0x0a,
  0xf4, 0xf2, 0xf6, 0x13, 0x03, 0xff, 0x02, 0xd4, 0xf3, 0x00, 0x00, 0x07,
  0xfb, 0x7f, 0x00, 0x00, 0x00, 0x00, 0xc5, 0x00, 0xd8, 0x00, 0xd5, 0xf2,
  0x00, 0x00, 0x00, 0xe1, 0xd3, 0x00, 0xee, 0x00, 0x0f, 0x00, 0x00, 0xd2,
  0x31, 0x0d, 0x00, 0xbe, 0xfc, 0xb8, 0x00, 0x00, 0x05, 0xaf, 0x17, 0x6c,
  0x00, 0x38, 0xe9, 0xea, 0x03, 0x0e, 0x14, 0xed, 0x1d, 0x00, 0x00, 0xca,
  0xb1, 0x81, 0x00, 0x00, 0x00, 0x00, 0xe2, 0x00, 0x24, 0x00, 0xe4, 0x87,
  0x00, 0x00, 0x00, 0xc5, 0xbc, 0x00, 0x0a, 0x00, 0x00, 0x00, 0x00, 0x00,
  0x00, 0x00, 0x00, 0x00, 0x00, 0x00, 0x00, 0x00, 0x00, 0x00, 0x00, 0x00,
  0x00, 0x00, 0x00, 0x00, 0x00, 0x00, 0x00, 0x00, 0x00, 0x00, 0x00, 0x00,
  0x00, 0x00, 0x00, 0x00, 0x00, 0x00, 0x00, 0x00, 0x00, 0x00, 0x00, 0x00,
  0x00, 0x00, 0x00, 0x00, 0x00, 0x00, 0x00, 0x00, 0x04, 0x00, 0x00, 0xe1,
  0x1b, 0x44, 0x00, 0xcd, 0xf3, 0xae, 0x00, 0x00, 0x1d, 0xc2, 0x50, 0x43,
  0xfe, 0x25, 0xec, 0x01, 0x01, 0x5d, 0x04, 0xf2, 0x76, 0x00, 0x00, 0xe5,
  0xc2, 0xe0, 0x00, 0x00, 0x00, 0x00, 0x26, 0x00, 0x81, 0x00, 0xe3, 0xea,
  0x00, 0x00, 0x00, 0x90, 0x86, 0x00, 0x10, 0x00, 0x00, 0x00, 0x00, 0x00,
  0x00, 0x00, 0x00, 0x00, 0x00, 0x00, 0x00, 0x00, 0x00, 0xfc, 0x81, 0x34,
  0x00, 0xb9, 0x00, 0x00, 0x00, 0x00, 0x00, 0x03, 0xc8, 0x00, 0x00, 0x00,
  0x00, 0xe6, 0x00, 0x00, 0x00, 0x00, 0x00, 0x00, 0x00, 0x00, 0xfe, 0x00,
  0x00, 0x00, 0x00, 0x00, 0x00, 0x00, 0x00, 0x00, 0xf8, 0x00, 0x00, 0xef,
  0xf9, 0xe4, 0x00, 0x0a, 0x01, 0x04, 0x00, 0x00, 0xfa, 0xf9, 0xfb, 0xe4,
  0xf8, 0x08, 0xe8, 0xfc, 0xfd, 0xfc, 0x10, 0xf7, 0xf2, 0x00, 0x00, 0xfa,
  0x03, 0xec, 0x00, 0x00, 0x00, 0x00, 0xf4, 0x00, 0x7f, 0x00, 0xea, 0xdf,
  0x00, 0x00, 0x00, 0x1f, 0xf6, 0x00, 0xf7, 0x00, 0xfe, 0x00, 0x00, 0xf9,
  0xf4, 0xf7, 0x00, 0xf4, 0xfb, 0xf5, 0x00, 0x00, 0x7f, 0x35, 0x0b, 0xff,
  0x21, 0xdf, 0x14, 0x20, 0xfc, 0xe4, 0xfd, 0x3b, 0xf4, 0x00, 0x00, 0x09,
  0x44, 0x92, 0x00, 0x00, 0x00, 0x00, 0x11, 0x00, 0x1d, 0x00, 0x0a, 0x37,
  0x00, 0x00, 0x00, 0xde, 0x11, 0x00, 0x0d, 0x00, 0x1e, 0x00, 0x00, 0xe0,
  0x24, 0xf3, 0x00, 0xd2, 0xf9, 0x23, 0x00, 0x00, 0x08, 0xbe, 0x9b, 0x29,
  0xfc, 0x56, 0xfd, 0xff, 0x04, 0x05, 0x0e, 0xf1, 0xca, 0x00, 0x00, 0xc9,
  0xd0, 0x81, 0x00, 0x00, 0x00, 0x00, 0xfa, 0x00, 0x24, 0x00, 0x00, 0x98,
  0x00, 0x00, 0x00, 0xf9, 0xe4, 0x00, 0xff, 0x00, 0x00, 0x00, 0x00, 0x00,
  0x00, 0x00, 0x00, 0x00, 0x00, 0x00, 0x00, 0x00, 0x00, 0x00, 0x00, 0x00,
  0x00, 0x00, 0x00, 0x00, 0x00, 0x00, 0x00, 0x00, 0x00, 0x00, 0x00, 0x00,
  0x00, 0x00, 0x00, 0x00, 0x00, 0x00, 0x00, 0x00, 0x00, 0x00, 0x00, 0x00,
  0x00, 0x00, 0x00, 0x00, 0x00, 0x00, 0x00, 0x00, 0xe2, 0x00, 0x00, 0x4b,
  0xd0, 0xef, 0x00, 0x2a, 0x03, 0x13, 0x00, 0x00, 0x1e, 0x6c, 0x33, 0xa0,
  0x09, 0xa2, 0x15, 0x5d, 0x09, 0xe1, 0xde, 0x43, 0xde, 0x00, 0x00, 0x33,
  0x7f, 0x40, 0x00, 0x00, 0x00, 0x00, 0x23, 0x00, 0x1d, 0x00, 0x2f, 0x64,
  0x00, 0x00, 0x00, 0x54, 0x43, 0x00, 0xe9, 0x00, 0x00, 0x00, 0x00, 0x00,
  0x00, 0x00, 0x00, 0x00, 0x00, 0x00, 0x00, 0x00, 0x00, 0x00, 0x00, 0x00,
  0x00, 0x00, 0x00, 0x00, 0x00, 0x00, 0x00, 0x00, 0x00, 0x00, 0x00, 0x00,
  0x00, 0x00, 0x00, 0x00, 0x00, 0x00, 0x00, 0x00, 0x00, 0x00, 0x00, 0x00,
  0x00, 0x00, 0x00, 0x00, 0x00, 0x00, 0x00, 0x00, 0x03, 0x00, 0x00, 0xf1,
  0x03, 0x13, 0x00, 0xf4, 0x00, 0xdc, 0x00, 0x00, 0xf0, 0x15, 0xe5, 0x04,
  0xf9, 0xea, 0xf7, 0xff, 0xfe, 0xf5, 0x06, 0x0a, 0x02, 0x00, 0x00, 0xf6,
  0x0a, 0xb8, 0x00, 0x00, 0x00, 0x00, 0xf6, 0x00, 0xe2, 0x00, 0xe9, 0x7f,
  0x00, 0x00, 0x00, 0x23, 0xe9, 0x00, 0xf7, 0x00, 0x12, 0x00, 0x00, 0x24,
  0xda, 0xed, 0x00, 0x3f, 0xf9, 0x0b, 0x00, 0x00, 0x2c, 0xd9, 0x48, 0xe9,
  0x0f, 0xc7, 0x2b, 0xff, 0x02, 0xfa, 0xd3, 0x2c, 0x02, 0x00, 0x00, 0x9f,
  0x22, 0x15, 0x00, 0x00, 0x00, 0x00, 0x7f, 0x00, 0xcf, 0x00, 0x49, 0xfc,
  0x00, 0x00, 0x00, 0x00, 0x34, 0x00, 0x03, 0x00, 0x00, 0x00, 0x00, 0x00,
  0x00, 0x00, 0x00, 0x00, 0x00, 0x00, 0x00, 0x00, 0x00, 0x00, 0x00, 0x00,
  0x00, 0x00, 0x00, 0x00, 0x00, 0x00, 0x00, 0x00, 0x00, 0x00, 0x00, 0x00,
  0x00, 0x00, 0x00, 0x00, 0x00, 0x00, 0x00, 0x00, 0x00, 0x00, 0x00, 0x00,
  0x00, 0x00, 0x00, 0x00, 0x00, 0x00, 0x00, 0x00, 0xec, 0x00, 0x00, 0xe1,
  0xfc, 0xd3, 0x00, 0xe9, 0xfa, 0x02, 0x00, 0x00, 0x7f, 0x27, 0x1b, 0xec,
  0x19, 0xe0, 0x23, 0x44, 0xfd, 0xef, 0xfa, 0x34, 0xea, 0x00, 0x00, 0xd3,
  0x43, 0xbe, 0x00, 0x00, 0x00, 0x00, 0x1c, 0x00, 0xff, 0x00, 0x05, 0x45,
  0x00, 0x00, 0x00, 0xcb, 0x17, 0x00, 0x20, 0x00, 0x00, 0x00, 0x00, 0x00,
  0x00, 0x00, 0x00, 0x00, 0x00, 0x00, 0x00, 0x00, 0x00, 0x00, 0x00, 0x00,
  0x00, 0x00, 0x00, 0x00, 0x00, 0x00, 0x00, 0x00, 0x00, 0x00, 0x00, 0x00,
  0x00, 0x00, 0x00, 0x00, 0x00, 0x00, 0x00, 0x00, 0x00, 0x00, 0x00, 0x00,
  0x00, 0x00, 0x00, 0x00, 0x00, 0x00, 0x00, 0x00, 0x11, 0x00, 0x00, 0xee,
  0x1f, 0xf8, 0x00, 0x0e, 0xf9, 0x00, 0x00, 0x00, 0xfb, 0xe6, 0xcc, 0xf3,
  0xf6, 0xea, 0xe0, 0xe3, 0xff, 0x05, 0xf7, 0xdb, 0xe6, 0x00, 0x00, 0xfe,
  0xf0, 0x0a, 0x00, 0x00, 0x00, 0x00, 0xee, 0x00, 0x7f, 0x00, 0xd9, 0x24,
  0x00, 0x00, 0x00, 0xe5, 0x03, 0x00, 0x01, 0x00, 0xfa, 0x00, 0x00, 0xea,
  0xff, 0x28, 0x00, 0x0f, 0xf4, 0xe8, 0x00, 0x00, 0xf4, 0xe1, 0x5c, 0xe3,
  0xf3, 0x7f, 0xf8, 0x26, 0xff, 0x27, 0x13, 0xd1, 0xfd, 0x00, 0x00, 0xea,
  0xe5, 0xdb, 0x00, 0x00, 0x00, 0x00, 0xfd, 0x00, 0xe8, 0x00, 0xf4, 0xe1,
  0x00, 0x00, 0x00, 0xc2, 0xcc, 0x00, 0xf6, 0x00, 0x1b, 0x00, 0x00, 0xcd,
  0x25, 0x39, 0x00, 0xdf, 0xf7, 0xee, 0x00, 0x00, 0xff, 0xc7, 0xdd, 0x31,
  0xf3, 0xe5, 0xdd, 0xa1, 0xff, 0x28, 0xe2, 0xad, 0x20, 0x00, 0x00, 0xd4,
  0xb1, 0x40, 0x00, 0x00, 0x00, 0x00, 0xdb, 0x00, 0xfc, 0x00, 0xe2, 0x7f,
  0x00, 0x00, 0x00, 0x86, 0xdc, 0x00, 0x06, 0x00, 0x00, 0x00, 0x00, 0x00,
  0x00, 0x00, 0x00, 0x00, 0x00, 0x00, 0x00, 0x00, 0x00, 0x00, 0x00, 0x00,
  0x00, 0x00, 0x00, 0x00, 0x00, 0x00, 0x00, 0x00, 0x00, 0x00, 0x00, 0x00,
  0x00, 0x00, 0x00, 0x00, 0x00, 0x00, 0x00, 0x00, 0x00, 0x00, 0x00, 0x00,
  0x00, 0x00, 0x00, 0x00, 0x00, 0x00, 0x00, 0x00, 0x00, 0x00, 0x00, 0x00,
  0x00, 0x00, 0x00, 0x00, 0x00, 0x00, 0x00, 0x00, 0x00, 0x00, 0x00, 0x00,
  0x00, 0x00, 0x00, 0x00, 0x00, 0x00, 0x00, 0x00, 0x00, 0x00, 0x00, 0x00,
  0x00, 0x00, 0x00, 0x00, 0x00, 0x00, 0x00, 0x00, 0x00, 0x00, 0x00, 0x00,
  0x00, 0x00, 0x00, 0x00, 0x00, 0x00, 0x00, 0x00, 0xe1, 0x00, 0x00, 0x1a,
  0xb3, 0xdd, 0x00, 0x33, 0xfb, 0x39, 0x00, 0x00, 0xe8, 0x02, 0x23, 0xc4,
  0x12, 0x81, 0x0c, 0x55, 0x00, 0xd4, 0xfa, 0x10, 0xcd, 0x00, 0x00, 0x28,
  0x4d, 0x04, 0x00, 0x00, 0x00, 0x00, 0x03, 0x00, 0x1e, 0x00, 0x1e, 0xc4,
  0x00, 0x00, 0x00, 0x31, 0x5a, 0x00, 0xf9, 0x00, 0x00, 0x00, 0x00, 0x00,
  0x00, 0x00, 0x00, 0x00, 0x00, 0x00, 0x00, 0x00, 0x00, 0xff, 0x00, 0x00,
  0x00, 0x00, 0x00, 0x00, 0x00, 0x00, 0x00, 0x00, 0x00, 0x00, 0x00, 0x00,
  0x00, 0x00, 0x00, 0x00, 0x00, 0x00, 0x00, 0x00, 0x00, 0x00, 0x00, 0x00,
  0x00, 0x00, 0x00, 0x00, 0x00, 0x00, 0x00, 0x00, 0xee, 0x00, 0x00, 0x0e,
  0x03, 0xf3, 0x00, 0xfe, 0x03, 0x0b, 0x00, 0x00, 0xea, 0xe7, 0x17, 0xee,
  0xf9, 0xdb, 0x16, 0x3e, 0x05, 0xf0, 0xfc, 0xe9, 0xd7, 0x00, 0x00, 0x00,
  0x02, 0x7f, 0x00, 0x00, 0x00, 0x00, 0x00, 0x00, 0x04, 0x00, 0x09, 0xf4,
  0x00, 0x00, 0x00, 0x0b, 0xf8, 0x00, 0xf4, 0x00, 0x00, 0x00, 0x00, 0x00,
  0x00, 0x00, 0x00, 0x00, 0x00, 0x00, 0x00, 0x00, 0x00, 0x00, 0x00, 0x00,
  0x00, 0x00, 0x00, 0x00, 0x00, 0x00, 0x00, 0x00, 0x00, 0x00, 0x00, 0x00,
  0x00, 0x00, 0x00, 0x00, 0x00, 0x00, 0x00, 0x00, 0x00, 0x00, 0x00, 0x00,
  0x00, 0x00, 0x00, 0x00, 0x00, 0x00, 0x00, 0x00, 0xf0, 0x00, 0x00, 0x0c,
  0xfb, 0xe3, 0x00, 0x06, 0x05, 0x12, 0x00, 0x00, 0xf3, 0xc8, 0x1a, 0xf2,
  0xea, 0xd7, 0xfb, 0x07, 0x05, 0xee, 0xf3, 0xd0, 0xd5, 0x00, 0x00, 0x04,
  0xdb, 0x7f, 0x00, 0x00, 0x00, 0x00, 0xfc, 0x00, 0xf2, 0x00, 0x07, 0xed,
  0x00, 0x00, 0x00, 0xf1, 0x09, 0x00, 0xe9, 0x00, 0xd6, 0x00, 0x00, 0x31,
  0xd3, 0xd7, 0x00, 0x3f, 0xfe, 0x30, 0x00, 0x00, 0x42, 0x41, 0x50, 0x81,
  0x02, 0x96, 0x0d, 0x79, 0x08, 0xd3, 0xd7, 0x58, 0xbf, 0x00, 0x00, 0x53,
  0x71, 0x7b, 0x00, 0x00, 0x00, 0x00, 0x2b, 0x00, 0xf3, 0x00, 0x41, 0x56,
  0x00, 0x00, 0x00, 0x10, 0x5c, 0x00, 0xda, 0x00, 0xf7, 0x00, 0x00, 0x4a,
  0xdd, 0xef, 0x00, 0x36, 0xf5, 0x11, 0x00, 0x00, 0x55, 0x57, 0x57, 0xc8,
  0x1a, 0xe0, 0x24, 0x27, 0x00, 0xea, 0xe2, 0x53, 0xf1, 0x00, 0x00, 0x95,
  0xf0, 0xfe, 0x00, 0x00, 0x00, 0x00, 0x7f, 0x00, 0xc2, 0x00, 0x58, 0x04,
  0x00, 0x00, 0x00, 0x40, 0x49, 0x00, 0x04, 0x00, 0x00, 0x00, 0x00, 0x00,
  0x00, 0x00, 0x00, 0x00, 0x00, 0x00, 0x00, 0x00, 0x00, 0x00, 0x00, 0x00,
  0x00, 0x00, 0x00, 0x00, 0x00, 0x00, 0x00, 0x00, 0x00, 0x00, 0x00, 0x00,
  0x00, 0x00, 0x00, 0x00, 0x00, 0x00, 0x00, 0x00, 0x00, 0x00, 0x00, 0x00,
  0x00, 0x00, 0x00, 0x00, 0x00, 0x00, 0x00, 0x00, 0x08, 0x00, 0x00, 0xd9,
  0x20, 0x28, 0x00, 0xce, 0xf5, 0xe0, 0x00, 0x00, 0x01, 0xc1, 0x81, 0x5b,
  0x06, 0x27, 0xf8, 0xef, 0x01, 0x1f, 0x00, 0xfa, 0x1d, 0x00, 0x00, 0xd2,
  0xc4, 0xb9, 0x00, 0x00, 0x00, 0x00, 0xee, 0x00, 0xc2, 0x00, 0xf2, 0xc4,
  0x00, 0x00, 0x00, 0xce, 0xf3, 0x00, 0x0b, 0x00, 0x00, 0x00, 0x00, 0x00,
  0x00, 0x00, 0x00, 0x00, 0x00, 0x00, 0x00, 0x00, 0x00, 0x00, 0x00, 0x00,
  0x00, 0x00, 0x00, 0x00, 0x00, 0x00, 0x00, 0x00, 0x00, 0x00, 0x00, 0x00,
  0x00, 0x00, 0x00, 0x00, 0x00, 0x00, 0x00, 0x00, 0x00, 0x00, 0x00, 0x00,
  0x00, 0x00, 0x00, 0x00, 0x00, 0x00, 0x00, 0x00, 0xbe, 0x00, 0x00, 0x4c,
  0xc8, 0xff, 0x00, 0x39, 0x03, 0x23, 0x00, 0x00, 0x26, 0x4e, 0x42, 0x9e,
  0x0a, 0x81, 0x14, 0x64, 0x04, 0xbe, 0xe5, 0x36, 0x9f, 0x00, 0x00, 0x65,
  0x62, 0x18, 0x00, 0x00, 0x00, 0x00, 0x13, 0x00, 0x25, 0x00, 0x30, 0xfc,
  0x00, 0x00, 0x00, 0x3d, 0x6f, 0x00, 0xf9, 0x00, 0x00, 0x00, 0x00, 0x00,
  0x00, 0x00, 0x00, 0x00, 0x00, 0x00, 0x00, 0x00, 0x00, 0x00, 0x00, 0x00,
  0x00, 0x00, 0x00, 0x00, 0x00, 0x00, 0x00, 0x00, 0x00, 0x00, 0x00, 0x00,
  0x00, 0x00, 0x00, 0x00, 0x00, 0x00, 0x00, 0x00, 0x00, 0x00, 0x00, 0x00,
  0x00, 0x00, 0x00, 0x00, 0x00, 0x00, 0x00, 0x00, 0x0b, 0x00, 0x00, 0xe6,
  0x14, 0x0b, 0x00, 0xc4, 0xf0, 0x06, 0x00, 0x00, 0xf8, 0xeb, 0x81, 0x34,
  0x0e, 0xe6, 0x04, 0xee, 0x01, 0xff, 0x03, 0x16, 0x07, 0x00, 0x00, 0xe7,
  0xde, 0xf3, 0x00, 0x00, 0x00, 0x00, 0x27, 0x00, 0xd1, 0x00, 0x36, 0xd2,
  0x00, 0x00, 0x00, 0x0f, 0x32, 0x00, 0x11, 0x00, 0x24, 0x00, 0x00, 0xf8,
  0x38, 0x13, 0x00, 0xd2, 0xf7, 0xc6, 0x00, 0x00, 0x0a, 0xe0, 0x0b, 0x2e,
  0x15, 0x0e, 0xf7, 0xfb, 0x00, 0x23, 0x02, 0xf3, 0x30, 0x00, 0x00, 0xf7,
  0xcf, 0xf2, 0x00, 0x00, 0x00, 0x00, 0x02, 0x00, 0x81, 0x00, 0xdf, 0xfb,
  0x00, 0x00, 0x00, 0xc6, 0xce, 0x00, 0x2e, 0x00, 0xf8, 0x00, 0x00, 0x52,
  0xed, 0xcd, 0x00, 0x34, 0xfd, 0x35, 0x00, 0x00, 0x4f, 0x38, 0x41, 0xd4,
  0xde, 0xc8, 0xe0, 0xdb, 0x00, 0xde, 0xd7, 0x50, 0xff, 0x00, 0x00, 0xa4,
  0xb8, 0x03, 0x00, 0x00, 0x00, 0x00, 0x7f, 0x00, 0xd2, 0x00, 0x4b, 0xc7,
  0x00, 0x00, 0x00, 0xd7, 0x4d, 0x00, 0xb4, 0x00, 0x00, 0x00, 0x00, 0x00,
  0x00, 0x00, 0x00, 0x00, 0x00, 0x00, 0x00, 0x00, 0x00, 0x00, 0x01, 0x00,
  0x00, 0x00, 0x00, 0x00, 0x00, 0x00, 0x00, 0x00, 0x00, 0x00, 0x00, 0x00,
  0x00, 0x00, 0x00, 0x00, 0x00, 0x00, 0x00, 0x00, 0x00, 0x00, 0x00, 0x00,
  0x00, 0x00, 0x00, 0x00, 0x00, 0x00, 0x00, 0x00, 0x00, 0x00, 0x00, 0x00,
  0x00, 0x00, 0x00, 0x00, 0x00, 0x00, 0x00, 0x00, 0x00, 0x00, 0x01, 0x00,
  0x00, 0x00, 0x00, 0x00, 0x00, 0x00, 0x00, 0x00, 0x00, 0x00, 0x00, 0x00,
  0x00, 0xcd, 0x00, 0x00, 0x00, 0x00, 0x00, 0x00, 0x00, 0x00, 0x00, 0x00,
  0x00, 0x00, 0x00, 0x00, 0x00, 0x00, 0x00, 0x00, 0x00, 0x00, 0x00, 0x00,
  0x00, 0x00, 0x00, 0x00, 0x00, 0x00, 0x00, 0x00, 0x00, 0x00, 0x00, 0x00,
  0x00, 0x00, 0x00, 0x00, 0x00, 0x00, 0x00, 0x00, 0x00, 0x00, 0x00, 0x00,
  0x00, 0x00, 0x00, 0x00, 0x00, 0x00, 0x00, 0x00, 0x00, 0x00, 0x00, 0x00,
  0x00, 0x00, 0x00, 0x00, 0x00, 0x00, 0x00, 0x00, 0x00, 0x00, 0x00, 0x00,
  0x00, 0x00, 0x00, 0x00, 0x00, 0x00, 0x00, 0x00, 0x00, 0x00, 0x00, 0x00,
  0x00, 0x00, 0x00, 0x00, 0x00, 0x00, 0x00, 0x00, 0x00, 0x00, 0x00, 0x00,
  0x00, 0x00, 0x00, 0x00, 0x00, 0x00, 0x00, 0x00, 0x00, 0x00, 0x00, 0x00,
  0x00, 0x00, 0x00, 0x00, 0x00, 0x00, 0x00, 0x00, 0xd3, 0x00, 0x00, 0x5b,
  0xc1, 0xea, 0x00, 0x41, 0x00, 0x2d, 0x00, 0x00, 0x26, 0x72, 0x61, 0x85,
  0x04, 0x99, 0x26, 0x68, 0x06, 0xbf, 0xe0, 0x4a, 0xd4, 0x00, 0x00, 0x42,
  0x7f, 0x5b, 0x00, 0x00, 0x00, 0x00, 0x31, 0x00, 0x2e, 0x00, 0x56, 0x34,
  0x00, 0x00, 0x00, 0x58, 0x62, 0x00, 0xed, 0x00, 0x00, 0x00, 0x00, 0x00,
  0x00, 0x00, 0x00, 0x00, 0x00, 0x00, 0x00, 0x00, 0x00, 0x00, 0x00, 0x00,
  0x00, 0x00, 0x00, 0x00, 0x00, 0x00, 0x00, 0x00, 0x00, 0x00, 0x00, 0x00,
  0x00, 0x00, 0x00, 0x00, 0x00, 0x00, 0x00, 0x00, 0x00, 0x00, 0x00, 0x00,
  0x00, 0x00, 0x00, 0x00, 0x00, 0x00, 0x00, 0x00, 0xe9, 0x00, 0x00, 0x4e,
  0xc3, 0xf5, 0x00, 0x4c, 0xef, 0x1e, 0x00, 0x00, 0x0d, 0x12, 0x31, 0x86,
  0x0c, 0x81, 0x1d, 0x48, 0x01, 0xe1, 0xd3, 0x17, 0xd4, 0x00, 0x00, 0x66,
  0x0c, 0x24, 0x00, 0x00, 0x00, 0x00, 0x24, 0x00, 0xc2, 0x00, 0x27, 0xf7,
  0x00, 0x00, 0x00, 0x1d, 0x6c, 0x00, 0xff, 0x00, 0x01, 0x00, 0x00, 0x5d,
  0xdc, 0xde, 0x00, 0x36, 0xf5, 0x08, 0x00, 0x00, 0x39, 0xc4, 0x5d, 0xb5,
  0xff, 0xb4, 0x08, 0x6b, 0x04, 0xd9, 0xc7, 0x35, 0xe0, 0x00, 0x00, 0x81,
  0x2e, 0x53, 0x00, 0x00, 0x00, 0x00, 0x5d, 0x00, 0x9d, 0x00, 0x4d, 0xeb,
  0x00, 0x00, 0x00, 0x11, 0x4e, 0x00, 0xed, 0x00, 0xe8, 0x00, 0x00, 0x24,
  0xb8, 0xd9, 0x00, 0x4f, 0xff, 0x45, 0x00, 0x00, 0xdc, 0xcb, 0x2d, 0xad,
  0x19, 0x8b, 0x13, 0x1e, 0xfd, 0xe2, 0xe2, 0x0b, 0x03, 0x00, 0x00, 0x15,
  0x4a, 0xf7, 0x00, 0x00, 0x00, 0x00, 0x1e, 0x00, 0xe4, 0x00, 0x34, 0xdd,
  0x00, 0x00, 0x00, 0x03, 0x7f, 0x00, 0xe9, 0x00, 0x11, 0x00, 0x00, 0xe2,
  0x1b, 0xe5, 0x00, 0xf5, 0xfc, 0xfc, 0x00, 0x00, 0xeb, 0xd7, 0xfb, 0x08,
  0xfc, 0x62, 0xee, 0xe5, 0x03, 0xe3, 0x09, 0xd8, 0xba, 0x00, 0x00, 0xf6,
  0xe7, 0xa6, 0x00, 0x00, 0x00, 0x00, 0xc7, 0x00, 0x7f, 0x00, 0xf0, 0xa4,
  0x00, 0x00, 0x00, 0xff, 0x2a, 0x00, 0xfc, 0x00, 0x00, 0x00, 0x00, 0x00,
  0x00, 0x00, 0x00, 0x00, 0x00, 0x00, 0x00, 0x00, 0x00, 0x00, 0x00, 0x00,
  0x00, 0x00, 0x00, 0x00, 0x00, 0x00, 0x00, 0x00, 0x00, 0x00, 0x00, 0x00,
  0x00, 0x00, 0x00, 0x00, 0x00, 0x00, 0x00, 0x00, 0x00, 0x00, 0x00, 0x00,
  0x00, 0x00, 0x00, 0x00, 0x00, 0x00, 0x00, 0x00, 0x00, 0x00, 0x00, 0x00,
  0x00, 0x00, 0x00, 0x00, 0x00, 0x00, 0x00, 0x00, 0x00, 0x00, 0x00, 0x00,
  0x00, 0x00, 0x00, 0x00, 0x00, 0x00, 0x00, 0x00, 0x00, 0x00, 0x00, 0x00,
  0x00, 0x00, 0x00, 0x00, 0x00, 0x00, 0x00, 0x00, 0x00, 0x00, 0x00, 0x00,
  0x00, 0x00, 0x00, 0x00, 0x00, 0x00, 0x00, 0x00, 0x00, 0x00, 0x00, 0x00,
  0x00, 0x00, 0x00, 0x00, 0x00, 0x00, 0x00, 0x00, 0x00, 0x00, 0x00, 0x00,
  0x00, 0x00, 0x00, 0x00, 0x00, 0x00, 0x00, 0x00, 0x00, 0x00, 0x00, 0x00,
  0x00, 0x00, 0x00, 0x00, 0x00, 0x00, 0x00, 0x00, 0x00, 0x00, 0x00, 0x00,
  0x00, 0x00, 0x00, 0x00, 0x00, 0x00, 0x00, 0x00, 0x00, 0x00, 0x00, 0x00,
  0x00, 0x00, 0x00, 0x00, 0x00, 0x00, 0x00, 0x00, 0x00, 0x00, 0x00, 0x00,
  0x00, 0x00, 0x00, 0x00, 0x00, 0x00, 0x00, 0x00, 0x00, 0x00, 0x00, 0x00,
  0x00, 0x00, 0x00, 0x00, 0x00, 0x00, 0x00, 0x00, 0x00, 0x00, 0x00, 0x00,
  0x00, 0x00, 0x00, 0x00, 0x00, 0x00, 0x00, 0x00, 0x36, 0x00, 0x00, 0xb1,
  0x1c, 0x0b, 0x00, 0xac, 0xfa, 0xfa, 0x00, 0x00, 0x0b, 0x9d, 0xb8, 0x5b,
  0x09, 0x39, 0x02, 0xf8, 0x02, 0x22, 0x10, 0xfa, 0x2d, 0x00, 0x00, 0xb4,
  0xa6, 0x84, 0x00, 0x00, 0x00, 0x00, 0x01, 0x00, 0xec, 0x00, 0xd4, 0x81,
  0x00, 0x00, 0x00, 0xc5, 0x98, 0x00, 0x1e, 0x00, 0x9a, 0xef, 0xff, 0xff,
  0x04, 0x00, 0x00, 0x00, 0x00, 0x01, 0x00, 0x00, 0x03, 0xf9, 0xff, 0xff,
  0x00, 0x00, 0x00, 0xc0, 0xdd, 0x1e, 0x00, 0x00, 0x00, 0x00, 0x00, 0xc0,
  0x50, 0x06, 0x00, 0x00, 0x0b, 0xda, 0xfd, 0xff, 0x3c, 0x08, 0x00, 0x00,
  0x80, 0xfb, 0xff, 0xff, 0x00, 0x00, 0x00, 0xc0, 0x00, 0x00, 0x00, 0xc0,
  0x00, 0x00, 0x00, 0xc0, 0x00, 0x00, 0x00, 0xc0, 0x00, 0x00, 0x00, 0xc0,
  0x49, 0xf9, 0xff, 0xff, 0x6b, 0x0c, 0x00, 0x00, 0x00, 0x00, 0x00, 0xc0,
  0x58, 0x00, 0x00, 0x00, 0x1d, 0x7f, 0x2f, 0xff, 0x50, 0xf8, 0xff, 0xff,
  0xe8, 0xf8, 0xff, 0xff, 0xfd, 0x0d, 0x00, 0x00, 0x00, 0x00, 0x00, 0xc0,
  0x8d, 0xeb, 0xff, 0xff, 0x00, 0x00, 0x00, 0xc0, 0x3a, 0xfb, 0xff, 0xff,
  0xf3, 0xe8, 0xff, 0xff, 0x40, 0x00, 0x00, 0xc0, 0x56, 0xf4, 0xff, 0xff,
  0x00, 0x00, 0x00, 0xc0, 0x8d, 0xf9, 0xff, 0xff, 0xa0, 0xf6, 0xff, 0xff,
  0x89, 0x01, 0x00, 0x00, 0x00, 0x00, 0x00, 0xc0, 0x00, 0x00, 0x00, 0xc0,
  0xf1, 0xfb, 0xff, 0xff, 0x00, 0x00, 0x00, 0xc0, 0x31, 0xf1, 0xff, 0xff,
  0x00, 0x00, 0x00, 0xc0, 0xe3, 0xf8, 0xff, 0xff, 0x91, 0xe6, 0xff, 0xff,
  0x71, 0xe1, 0xff, 0xff, 0x00, 0x00, 0x00, 0xc0, 0xe2, 0x10, 0x00, 0x00,
  0x00, 0x00, 0x00, 0xc0, 0x1a, 0xee, 0xff, 0xff, 0x00, 0x00, 0x00, 0xc0,
  0x3d, 0x06, 0x00, 0x00, 0xc2, 0x03, 0x00, 0x00, 0x06, 0xe7, 0xff, 0xff,
  0x00, 0x00, 0x00, 0xc0, 0x00, 0x00, 0x00, 0xc0, 0x00, 0x00, 0x00, 0xc0,
  0x00, 0x00, 0x00, 0xc0, 0x7d, 0xe6, 0xff, 0xff, 0x00, 0x00, 0x00, 0xc0,
  0x19, 0xf3, 0xff, 0xff, 0x6a, 0xe7, 0xff, 0xff, 0xfe, 0xfa, 0xff, 0xff,
  0x87, 0xfd, 0xff, 0xff, 0x00, 0x00, 0x00, 0xc0, 0x00, 0x00, 0x00, 0xc0,
  0x00, 0x00, 0x00, 0xc0, 0x00, 0x00, 0x00, 0xc0, 0xe5, 0x15, 0x00, 0x00,
  0xa6, 0xf0, 0xff, 0xff, 0x04, 0x00, 0x00, 0x00, 0x80, 0x02, 0x00, 0x00,
  0x2e, 0x42, 0x01, 0x3b, 0x02, 0xed, 0xe7, 0x0d, 0xeb, 0xee, 0x35, 0x2a,
  0xa9, 0xdb, 0xe6, 0x00, 0xe4, 0xe0, 0x18, 0x2a, 0x16, 0xf2, 0xe5, 0x21,
  0x4d, 0x15, 0xea, 0x0f, 0xc3, 0x2f, 0xde, 0x32, 0x3c, 0x18, 0x3e, 0xff,
  0xdd, 0x0e, 0xff, 0x1f, 0xfa, 0x27, 0xce, 0x20, 0x02, 0x19, 0xe6, 0xcd,
  0xcb, 0xe4, 0x04, 0xf2, 0xe3, 0x4c, 0x1b, 0xf6, 0x3b, 0x59, 0xeb, 0x1e,
  0x52, 0xdc, 0x02, 0x13, 0x55, 0xc2, 0x25, 0xfa, 0xbf, 0x00, 0x0c, 0xed,
  0x01, 0xbd, 0xe7, 0x37, 0xf6, 0x31, 0x1f, 0x51, 0xc5, 0x38, 0x4f, 0xca,
  0x5a, 0x33, 0x07, 0x38, 0xf2, 0xfd, 0x51, 0x31, 0x2d, 0x66, 0xe0, 0x08,
  0xcc, 0xd2, 0x34, 0x1d, 0x1e, 0x2f, 0xdb, 0x12, 0x17, 0x1e, 0x96, 0xf7,
  0xd0, 0xb9, 0xdb, 0xbe, 0x27, 0x2c, 0x37, 0x25, 0xdf, 0xda, 0xf2, 0x48,
  0xe3, 0x2b, 0x0f, 0x06, 0xcc, 0x40, 0xd7, 0x1e, 0x1f, 0x29, 0x01, 0xc6,
  0xe8, 0xfc, 0xec, 0x21, 0x37, 0xfb, 0xf3, 0x0f, 0x06, 0xc5, 0xff, 0xcf,
  0xe3, 0xb8, 0xbc, 0xf2, 0x19, 0x55, 0xe4, 0x0f, 0x00, 0x4d, 0x19, 0x40,
  0x1b, 0xe3, 0xe9, 0xd9, 0x0a, 0x3b, 0x5c, 0xf8, 0x17, 0x3d, 0x2a, 0x29,
  0x17, 0xea, 0xfd, 0xfa, 0x46, 0x06, 0xee, 0xc9, 0x69, 0x1b, 0x35, 0x32,
  0x36, 0x0d, 0xd0, 0x09, 0x25, 0x2a, 0x97, 0xc1, 0x40, 0xbf, 0xb0, 0xde,
  0x2e, 0x3e, 0xd3, 0x12, 0xd0, 0xea, 0xa0, 0x5f, 0x2b, 0x07, 0xe3, 0xc7,
  0xdd, 0x7f, 0x98, 0x33, 0xbf, 0xbb, 0x39, 0x66, 0xa5, 0xb9, 0xe5, 0xad,
  0x06, 0x1a, 0x31, 0x47, 0xf0, 0xe5, 0x95, 0x50, 0x47, 0x21, 0xbf, 0xc6,
  0x1f, 0xca, 0x75, 0x44, 0x51, 0xf7, 0xda, 0xb9, 0xf3, 0xfc, 0x10, 0x36,
  0xf0, 0x04, 0x31, 0xd1, 0x46, 0x3c, 0x0d, 0xc1, 0x41, 0x39, 0xfa, 0xd2,
  0xcb, 0x18, 0x2a, 0xe9, 0xf2, 0xee, 0xdc, 0xdf, 0xed, 0x43, 0x02, 0xf9,
  0x22, 0xe6, 0xfc, 0xcd, 0xda, 0xdd, 0x49, 0xd9, 0xd8, 0xef, 0xf6, 0x01,
  0x0e, 0x2c, 0x26, 0x17, 0xbb, 0x28, 0x11, 0xd8, 0xd8, 0x91, 0xfd, 0x94,
  0x99, 0x09, 0xf3, 0x2b, 0xe5, 0x1e, 0xf3, 0x1b, 0x05, 0x11, 0x11, 0xff,
  0x14, 0x04, 0xd7, 0xbb, 0x2d, 0x18, 0xd4, 0x3e, 0xf3, 0x29, 0x26, 0x15,
  0x1e, 0x00, 0x2d, 0xc4, 0xb1, 0x01, 0x8f, 0xd7, 0xfb, 0x46, 0x2d, 0x3f,
  0x27, 0xee, 0x1b, 0x0e, 0x1e, 0xe9, 0x19, 0xcd, 0xaf, 0xd3, 0x35, 0x07,
  0xff, 0xd6, 0x15, 0x0b, 0x36, 0x22, 0xc8, 0x26, 0x45, 0xf0, 0x29, 0xe8,
  0xb6, 0x3a, 0x0f, 0x41, 0x12, 0xf9, 0x16, 0xe0, 0xbf, 0x31, 0xe5, 0x02,
  0xc8, 0x27, 0xd9, 0x17, 0xf2, 0xe3, 0x0d, 0x05, 0xc1, 0xf9, 0xff, 0x28,
  0x05, 0x35, 0xeb, 0xdc, 0x1c, 0x28, 0x15, 0xc5, 0x4a, 0x1e, 0xc0, 0x22,
  0x13, 0xb7, 0x4c, 0x14, 0xea, 0xcc, 0xf2, 0xea, 0xe9, 0xc1, 0x00, 0x5b,
  0xc4, 0x2b, 0xed, 0x45, 0x1a, 0x3d, 0xee, 0xa4, 0x34, 0x0c, 0xdd, 0x3e,
  0xf3, 0xc4, 0x44, 0x0c, 0x30, 0x1e, 0xf2, 0x2c, 0x32, 0x0b, 0xe1, 0xf1,
  0xf9, 0x1c, 0xd0, 0x05, 0xfd, 0xe7, 0xdd, 0x33, 0xaa, 0xef, 0x39, 0x35,
  0xd3, 0x31, 0x40, 0xee, 0x0a, 0xba, 0x1f, 0x38, 0xc2, 0xe6, 0xab, 0x0e,
  0xd9, 0x03, 0x3e, 0x3e, 0xd0, 0x30, 0x31, 0xda, 0xf8, 0xe1, 0x3b, 0x0f,
  0x4c, 0x01, 0xe7, 0xd0, 0x38, 0xbd, 0x31, 0xf6, 0x12, 0xbb, 0xff, 0xc2,
  0x4e, 0x60, 0xb5, 0xe7, 0xfe, 0x09, 0xeb, 0x08, 0x11, 0x0e, 0x12, 0x09,
  0x31, 0x56, 0x3c, 0xf7, 0xf9, 0x37, 0x25, 0xfe, 0xf9, 0x22, 0x33, 0xea,
  0x10, 0xfe, 0x22, 0xf5, 0x2b, 0x09, 0x2e, 0x1a, 0xe2, 0xd9, 0x35, 0xd8,
  0xf8, 0x0d, 0xc9, 0xe4, 0x20, 0xbe, 0xbb, 0x09, 0x0b, 0x3a, 0x38, 0xce,
  0x2a, 0x0f, 0x07, 0xd9, 0x1d, 0xcc, 0x11, 0xf3, 0xd7, 0xf8, 0x3c, 0x3a,
  0xb6, 0xc6, 0x28, 0xf0, 0x31, 0xe0, 0x81, 0xc8, 0x88, 0xea, 0x45, 0xcb,
  0xe3, 0xe8, 0x05, 0xbf, 0xee, 0x0c, 0xd4, 0x08, 0xb5, 0x2b, 0xdc, 0xec,
  0x44, 0xcc, 0x11, 0xb8, 0xd4, 0x04, 0x3c, 0x35, 0xd8, 0x0b, 0x47, 0xed,
  0x35, 0xef, 0xc9, 0x95, 0xfc, 0x39, 0x34, 0xac, 0xd8, 0x08, 0xe0, 0x52,
  0xdb, 0x0a, 0xce, 0xe8, 0xf2, 0x17, 0xf7, 0x39, 0xfe, 0xf3, 0xdc, 0x16,
  0xed, 0x1b, 0x38, 0xea, 0x02, 0xd8, 0x1c, 0x13, 0x0e, 0x01, 0x3c, 0x07,
  0xf3, 0xeb, 0xf8, 0xe7, 0xf1, 0xc5, 0xf5, 0x12, 0xbf, 0xf3, 0xd9, 0x49,
  0xf7, 0xe2, 0x38, 0x2b, 0xd6, 0x3a, 0x1b, 0xdd, 0xf8, 0x0e, 0xfc, 0xd7,
  0xe8, 0x0e, 0xcc, 0x49, 0xfb, 0x3b, 0xfc, 0xee, 0x07, 0xdd, 0x2c, 0x09,
  0xa8, 0x10, 0xb7, 0xe0, 0x32, 0xf3, 0xff, 0xff, 0x04, 0x00, 0x00, 0x00,
  0x08, 0x00, 0x00, 0x00, 0xc5, 0xe2, 0xff, 0xff, 0x64, 0x1d, 0x00, 0x00,
  0x46, 0xf3, 0xff, 0xff, 0x04, 0x00, 0x00, 0x00, 0x04, 0x00, 0x00, 0x00,
  0x02, 0x00, 0x00, 0x00, 0x56, 0xf3, 0xff, 0xff, 0x04, 0x00, 0x00, 0x00,
  0x10, 0x00, 0x00, 0x00, 0x00, 0x00, 0x00, 0x00, 0x00, 0x00, 0x00, 0x00,
  0x10, 0x00, 0x00, 0x00, 0x10, 0x00, 0x00, 0x00, 0x72, 0xf3, 0xff, 0xff,
  0x04, 0x00, 0x00, 0x00, 0x08, 0x00, 0x00, 0x00, 0x01, 0x00, 0x00, 0x00,
  0x08, 0x00, 0x00, 0x00, 0x86, 0xf3, 0xff, 0xff, 0x04, 0x00, 0x00, 0x00,
  0x10, 0x00, 0x00, 0x00, 0x00, 0x00, 0x00, 0x00, 0x00, 0x00, 0x00, 0x00,
  0x08, 0x00, 0x00, 0x00, 0x08, 0x00, 0x00, 0x00, 0xa2, 0xf3, 0xff, 0xff,
  0x04, 0x00, 0x00, 0x00, 0x08, 0x00, 0x00, 0x00, 0x01, 0x00, 0x00, 0x00,
  0x04, 0x00, 0x00, 0x00, 0xb6, 0xf3, 0xff, 0xff, 0x04, 0x00, 0x00, 0x00,
  0x10, 0x00, 0x00, 0x00, 0x00, 0x00, 0x00, 0x00, 0x00, 0x00, 0x00, 0x00,
  0x00, 0x00, 0x00, 0x00, 0x00, 0x00, 0x00, 0x00, 0xd2, 0xf3, 0xff, 0xff,
  0x04, 0x00, 0x00, 0x00, 0x10, 0x00, 0x00, 0x00, 0x00, 0x00, 0x00, 0x00,
  0x00, 0x00, 0x00, 0x00, 0x04, 0x00, 0x00, 0x00, 0x04, 0x00, 0x00, 0x00,
  0xee, 0xf3, 0xff, 0xff, 0x04, 0x00, 0x00, 0x00, 0x08, 0x00, 0x00, 0x00,
  0x01, 0x00, 0x00, 0x00, 0x02, 0x00, 0x00, 0x00, 0x02, 0xf4, 0xff, 0xff,
  0x04, 0x00, 0x00, 0x00, 0x04, 0x00, 0x00, 0x00, 0x0e, 0x00, 0x00, 0x00,
  0x12, 0xf4, 0xff, 0xff, 0x04, 0x00, 0x00, 0x00, 0x04, 0x00, 0x00, 0x00,
  0xf0, 0x00, 0x00, 0x00, 0xdc, 0x8a, 0xff, 0xff, 0x26, 0xf4, 0xff, 0xff,
  0x04, 0x00, 0x00, 0x00, 0x04, 0x00, 0x00, 0x00, 0x01, 0x00, 0x00, 0x00,
  0x36, 0xf4, 0xff, 0xff, 0x04, 0x00, 0x00, 0x00, 0x04, 0x00, 0x00, 0x00,
  0x00, 0x00, 0x00, 0x00, 0x00, 0x8b, 0xff, 0xff, 0x04, 0x8b, 0xff, 0xff,
  0x0f, 0x00, 0x00, 0x00, 0x4d, 0x4c, 0x49, 0x52, 0x20, 0x43, 0x6f, 0x6e,
  0x76, 0x65, 0x72, 0x74, 0x65, 0x64, 0x2e, 0x00, 0x01, 0x00, 0x00, 0x00,
  0x14, 0x00, 0x00, 0x00, 0x00, 0x00, 0x0e, 0x00, 0x18, 0x00, 0x14, 0x00,
  0x10, 0x00, 0x0c, 0x00, 0x08, 0x00, 0x04, 0x00, 0x0e, 0x00, 0x00, 0x00,
  0x14, 0x00, 0x00, 0x00, 0x1c, 0x00, 0x00, 0x00, 0x44, 0x0c, 0x00, 0x00,
  0x48, 0x0c, 0x00, 0x00, 0x4c, 0x0c, 0x00, 0x00, 0x04, 0x00, 0x00, 0x00,
  0x6d, 0x61, 0x69, 0x6e, 0x00, 0x00, 0x00, 0x00, 0x36, 0x00, 0x00, 0x00,
  0xf4, 0x0b, 0x00, 0x00, 0x94, 0x0b, 0x00, 0x00, 0x3c, 0x0b, 0x00, 0x00,
  0x14, 0x0b, 0x00, 0x00, 0xb8, 0x0a, 0x00, 0x00, 0x60, 0x0a, 0x00, 0x00,
  0x28, 0x0a, 0x00, 0x00, 0xd8, 0x09, 0x00, 0x00, 0x8c, 0x09, 0x00, 0x00,
  0x64, 0x09, 0x00, 0x00, 0x40, 0x09, 0x00, 0x00, 0x0c, 0x09, 0x00, 0x00,
  0xc8, 0x08, 0x00, 0x00, 0x9c, 0x08, 0x00, 0x00, 0x48, 0x08, 0x00, 0x00,
  0x1c, 0x08, 0x00, 0x00, 0xe8, 0x07, 0x00, 0x00, 0xb0, 0x07, 0x00, 0x00,
  0x78, 0x07, 0x00, 0x00, 0x34, 0x07, 0x00, 0x00, 0xf4, 0x06, 0x00, 0x00,
  0xcc, 0x06, 0x00, 0x00, 0xa8, 0x06, 0x00, 0x00, 0x74, 0x06, 0x00, 0x00,
  0x30, 0x06, 0x00, 0x00, 0x04, 0x06, 0x00, 0x00, 0xbc, 0x05, 0x00, 0x00,
  0x90, 0x05, 0x00, 0x00, 0x5c, 0x05, 0x00, 0x00, 0x24, 0x05, 0x00, 0x00,
  0xec, 0x04, 0x00, 0x00, 0xa8, 0x04, 0x00, 0x00, 0x68, 0x04, 0x00, 0x00,
  0x40, 0x04, 0x00, 0x00, 0x1c, 0x04, 0x00, 0x00, 0xe8, 0x03, 0x00, 0x00,
  0xa4, 0x03, 0x00, 0x00, 0x78, 0x03, 0x00, 0x00, 0x30, 0x03, 0x00, 0x00,
  0x04, 0x03, 0x00, 0x00, 0xd0, 0x02, 0x00, 0x00, 0x98, 0x02, 0x00, 0x00,
  0x60, 0x02, 0x00, 0x00, 0x1c, 0x02, 0x00, 0x00, 0xdc, 0x01, 0x00, 0x00,
  0xb4, 0x01, 0x00, 0x00, 0x90, 0x01, 0x00, 0x00, 0x5c, 0x01, 0x00, 0x00,
  0x18, 0x01, 0x00, 0x00, 0xd8, 0x00, 0x00, 0x00, 0xa8, 0x00, 0x00, 0x00,
  0x68, 0x00, 0x00, 0x00, 0x2c, 0x00, 0x00, 0x00, 0x04, 0x00, 0x00, 0x00,
  0xc2, 0xf5, 0xff, 0xff, 0x0c, 0x00, 0x00, 0x00, 0x10, 0x00, 0x00, 0x00,
  0x03, 0x00, 0x00, 0x00, 0x01, 0x00, 0x00, 0x00, 0x71, 0x00, 0x00, 0x00,
  0x02, 0x00, 0x00, 0x00, 0x6d, 0x00, 0x00, 0x00, 0x70, 0x00, 0x00, 0x00,
  0x72, 0xf5, 0xff, 0xff, 0x14, 0x00, 0x00, 0x00, 0x00, 0x00, 0x00, 0x3b,
  0x14, 0x00, 0x00, 0x00, 0x18, 0x00, 0x00, 0x00, 0x02, 0x00, 0x00, 0x00,
  0xb6, 0xf5, 0xff, 0xff, 0x03, 0x00, 0x00, 0x00, 0x01, 0x00, 0x00, 0x00,
  0x70, 0x00, 0x00, 0x00, 0x03, 0x00, 0x00, 0x00, 0x6f, 0x00, 0x00, 0x00,
  0x04, 0x00, 0x00, 0x00, 0x0d, 0x00, 0x00, 0x00, 0xaa, 0xf5, 0xff, 0xff,
  0x14, 0x00, 0x00, 0x00, 0x00, 0x00, 0x00, 0x20, 0x14, 0x00, 0x00, 0x00,
  0x18, 0x00, 0x00, 0x00, 0x01, 0x00, 0x00, 0x00, 0x9a, 0xf5, 0xff, 0xff,
  0x01, 0x00, 0x00, 0x00, 0x01, 0x00, 0x00, 0x00, 0x6f, 0x00, 0x00, 0x00,
  0x04, 0x00, 0x00, 0x00, 0x6e, 0x00, 0x00, 0x00, 0x01, 0x00, 0x00, 0x00,
  0x02, 0x00, 0x00, 0x00, 0x02, 0x00, 0x00, 0x00, 0x8a, 0xf5, 0xff, 0xff,
  0x10, 0x00, 0x00, 0x00, 0x00, 0x00, 0x00, 0x37, 0x10, 0x00, 0x00, 0x00,
  0x14, 0x00, 0x00, 0x00, 0x7a, 0xf5, 0xff, 0xff, 0x00, 0x00, 0x00, 0x02,
  0x01, 0x00, 0x00, 0x00, 0x6e, 0x00, 0x00, 0x00, 0x01, 0x00, 0x00, 0x00,
  0x6d, 0x00, 0x00, 0x00, 0x12, 0xf6, 0xff, 0xff, 0x14, 0x00, 0x00, 0x00,
  0x00, 0x00, 0x00, 0x01, 0x18, 0x00, 0x00, 0x00, 0x1c, 0x00, 0x00, 0x00,
  0x06, 0x00, 0x00, 0x00, 0xee, 0xf7, 0xff, 0xff, 0x01, 0x00, 0x00, 0x00,
  0x01, 0x00, 0x00, 0x00, 0x01, 0x00, 0x00, 0x00, 0x6d, 0x00, 0x00, 0x00,
  0x03, 0x00, 0x00, 0x00, 0x6c, 0x00, 0x00, 0x00, 0x0f, 0x00, 0x00, 0x00,
  0x0e, 0x00, 0x00, 0x00, 0x4e, 0xf6, 0xff, 0xff, 0x14, 0x00, 0x00, 0x00,
  0x00, 0x00, 0x00, 0x01, 0x1c, 0x00, 0x00, 0x00, 0x20, 0x00, 0x00, 0x00,
  0x06, 0x00, 0x00, 0x00, 0xe4, 0xf7, 0xff, 0xff, 0x00, 0x00, 0x00, 0x03,
  0x01, 0x00, 0x00, 0x00, 0x01, 0x00, 0x00, 0x00, 0x01, 0x00, 0x00, 0x00,
  0x6c, 0x00, 0x00, 0x00, 0x03, 0x00, 0x00, 0x00, 0x6b, 0x00, 0x00, 0x00,
  0x11, 0x00, 0x00, 0x00, 0x10, 0x00, 0x00, 0x00, 0x8e, 0xf6, 0xff, 0xff,
  0x14, 0x00, 0x00, 0x00, 0x00, 0x00, 0x00, 0x15, 0x10, 0x00, 0x00, 0x00,
  0x14, 0x00, 0x00, 0x00, 0x09, 0x00, 0x00, 0x00, 0x8c, 0x8d, 0xff, 0xff,
  0x01, 0x00, 0x00, 0x00, 0x6b, 0x00, 0x00, 0x00, 0x02, 0x00, 0x00, 0x00,
  0x65, 0x00, 0x00, 0x00, 0x6a, 0x00, 0x00, 0x00, 0x32, 0xf7, 0xff, 0xff,
  0x0c, 0x00, 0x00, 0x00, 0x10, 0x00, 0x00, 0x00, 0x08, 0x00, 0x00, 0x00,
  0x01, 0x00, 0x00, 0x00, 0x6a, 0x00, 0x00, 0x00, 0x01, 0x00, 0x00, 0x00,
  0x69, 0x00, 0x00, 0x00, 0x52, 0xf7, 0xff, 0xff, 0x0c, 0x00, 0x00, 0x00,
  0x10, 0x00, 0x00, 0x00, 0x07, 0x00, 0x00, 0x00, 0x01, 0x00, 0x00, 0x00,
  0x69, 0x00, 0x00, 0x00, 0x02, 0x00, 0x00, 0x00, 0x68, 0x00, 0x00, 0x00,
  0x33, 0x00, 0x00, 0x00, 0x02, 0xf7, 0xff, 0xff, 0x14, 0x00, 0x00, 0x00,
  0x00, 0x00, 0x00, 0x01, 0x18, 0x00, 0x00, 0x00, 0x1c, 0x00, 0x00, 0x00,
  0x06, 0x00, 0x00, 0x00, 0xde, 0xf8, 0xff, 0xff, 0x01, 0x00, 0x00, 0x00,
  0x01, 0x00, 0x00, 0x00, 0x01, 0x00, 0x00, 0x00, 0x68, 0x00, 0x00, 0x00,
  0x03, 0x00, 0x00, 0x00, 0x67, 0x00, 0x00, 0x00, 0x13, 0x00, 0x00, 0x00,
  0x12, 0x00, 0x00, 0x00, 0x3e, 0xf7, 0xff, 0xff, 0x14, 0x00, 0x00, 0x00,
  0x00, 0x00, 0x00, 0x01, 0x1c, 0x00, 0x00, 0x00, 0x20, 0x00, 0x00, 0x00,
  0x06, 0x00, 0x00, 0x00, 0xd4, 0xf8, 0xff, 0xff, 0x00, 0x00, 0x00, 0x03,
  0x01, 0x00, 0x00, 0x00, 0x01, 0x00, 0x00, 0x00, 0x01, 0x00, 0x00, 0x00,
  0x67, 0x00, 0x00, 0x00, 0x03, 0x00, 0x00, 0x00, 0x66, 0x00, 0x00, 0x00,
  0x15, 0x00, 0x00, 0x00, 0x14, 0x00, 0x00, 0x00, 0x7e, 0xf7, 0xff, 0xff,
  0x14, 0x00, 0x00, 0x00, 0x00, 0x00, 0x00, 0x1b, 0x14, 0x00, 0x00, 0x00,
  0x18, 0x00, 0x00, 0x00, 0x05, 0x00, 0x00, 0x00, 0x16, 0xf7, 0xff, 0xff,
  0x00, 0x00, 0x00, 0x01, 0x01, 0x00, 0x00, 0x00, 0x66, 0x00, 0x00, 0x00,
  0x02, 0x00, 0x00, 0x00, 0x65, 0x00, 0x00, 0x00, 0x06, 0x00, 0x00, 0x00,
  0xb2, 0xf7, 0xff, 0xff, 0x14, 0x00, 0x00, 0x00, 0x00, 0x00, 0x00, 0x0b,
  0x14, 0x00, 0x00, 0x00, 0x18, 0x00, 0x00, 0x00, 0x0c, 0x00, 0x00, 0x00,
  0x4a, 0xf7, 0xff, 0xff, 0x00, 0x00, 0x00, 0x03, 0x01, 0x00, 0x00, 0x00,
  0x65, 0x00, 0x00, 0x00, 0x02, 0x00, 0x00, 0x00, 0x64, 0x00, 0x00, 0x00,
  0x16, 0x00, 0x00, 0x00, 0xe6, 0xf7, 0xff, 0xff, 0x14, 0x00, 0x00, 0x00,
  0x00, 0x00, 0x00, 0x15, 0x10, 0x00, 0x00, 0x00, 0x14, 0x00, 0x00, 0x00,
  0x09, 0x00, 0x00, 0x00, 0xe4, 0x8e, 0xff, 0xff, 0x01, 0x00, 0x00, 0x00,
  0x64, 0x00, 0x00, 0x00, 0x02, 0x00, 0x00, 0x00, 0x63, 0x00, 0x00, 0x00,
  0x17, 0x00, 0x00, 0x00, 0x8a, 0xf8, 0xff, 0xff, 0x0c, 0x00, 0x00, 0x00,
  0x10, 0x00, 0x00, 0x00, 0x0b, 0x00, 0x00, 0x00, 0x01, 0x00, 0x00, 0x00,
  0x63, 0x00, 0x00, 0x00, 0x03, 0x00, 0x00, 0x00, 0x62, 0x00, 0x00, 0x00,
  0x0b, 0x00, 0x00, 0x00, 0x08, 0x00, 0x00, 0x00, 0x3e, 0xf8, 0xff, 0xff,
  0x14, 0x00, 0x00, 0x00, 0x00, 0x00, 0x00, 0x02, 0x20, 0x00, 0x00, 0x00,
  0x24, 0x00, 0x00, 0x00, 0x04, 0x00, 0x00, 0x00, 0x48, 0xfb, 0xff, 0xff,
  0x01, 0x00, 0x00, 0x00, 0x01, 0x00, 0x00, 0x00, 0x01, 0x00, 0x00, 0x00,
  0x00, 0x00, 0x00, 0x01, 0x01, 0x00, 0x00, 0x00, 0x62, 0x00, 0x00, 0x00,
  0x03, 0x00, 0x00, 0x00, 0x61, 0x00, 0x00, 0x00, 0x19, 0x00, 0x00, 0x00,
  0x18, 0x00, 0x00, 0x00, 0xf6, 0xf8, 0xff, 0xff, 0x0c, 0x00, 0x00, 0x00,
  0x10, 0x00, 0x00, 0x00, 0x0a, 0x00, 0x00, 0x00, 0x01, 0x00, 0x00, 0x00,
  0x61, 0x00, 0x00, 0x00, 0x03, 0x00, 0x00, 0x00, 0x60, 0x00, 0x00, 0x00,
  0x0b, 0x00, 0x00, 0x00, 0x0c, 0x00, 0x00, 0x00, 0xaa, 0xf8, 0xff, 0xff,
  0x14, 0x00, 0x00, 0x00, 0x00, 0x00, 0x00, 0x01, 0x1c, 0x00, 0x00, 0x00,
  0x20, 0x00, 0x00, 0x00, 0x06, 0x00, 0x00, 0x00, 0x40, 0xfa, 0xff, 0xff,
  0x00, 0x00, 0x00, 0x03, 0x01, 0x00, 0x00, 0x00, 0x01, 0x00, 0x00, 0x00,
  0x01, 0x00, 0x00, 0x00, 0x60, 0x00, 0x00, 0x00, 0x03, 0x00, 0x00, 0x00,
  0x5f, 0x00, 0x00, 0x00, 0x1b, 0x00, 0x00, 0x00, 0x1a, 0x00, 0x00, 0x00,
  0xea, 0xf8, 0xff, 0xff, 0x14, 0x00, 0x00, 0x00, 0x00, 0x00, 0x00, 0x15,
  0x10, 0x00, 0x00, 0x00, 0x14, 0x00, 0x00, 0x00, 0x09, 0x00, 0x00, 0x00,
  0xe8, 0x8f, 0xff, 0xff, 0x01, 0x00, 0x00, 0x00, 0x5f, 0x00, 0x00, 0x00,
  0x02, 0x00, 0x00, 0x00, 0x59, 0x00, 0x00, 0x00, 0x5e, 0x00, 0x00, 0x00,
  0x8e, 0xf9, 0xff, 0xff, 0x0c, 0x00, 0x00, 0x00, 0x10, 0x00, 0x00, 0x00,
  0x08, 0x00, 0x00, 0x00, 0x01, 0x00, 0x00, 0x00, 0x5e, 0x00, 0x00, 0x00,
  0x01, 0x00, 0x00, 0x00, 0x5d, 0x00, 0x00, 0x00, 0xae, 0xf9, 0xff, 0xff,
  0x0c, 0x00, 0x00, 0x00, 0x10, 0x00, 0x00, 0x00, 0x07, 0x00, 0x00, 0x00,
  0x01, 0x00, 0x00, 0x00, 0x5d, 0x00, 0x00, 0x00, 0x02, 0x00, 0x00, 0x00,
  0x5c, 0x00, 0x00, 0x00, 0x32, 0x00, 0x00, 0x00, 0x5e, 0xf9, 0xff, 0xff,
  0x14, 0x00, 0x00, 0x00, 0x00, 0x00, 0x00, 0x01, 0x18, 0x00, 0x00, 0x00,
  0x1c, 0x00, 0x00, 0x00, 0x06, 0x00, 0x00, 0x00, 0x3a, 0xfb, 0xff, 0xff,
  0x01, 0x00, 0x00, 0x00, 0x01, 0x00, 0x00, 0x00, 0x01, 0x00, 0x00, 0x00,
  0x5c, 0x00, 0x00, 0x00, 0x03, 0x00, 0x00, 0x00, 0x5b, 0x00, 0x00, 0x00,
  0x1d, 0x00, 0x00, 0x00, 0x1c, 0x00, 0x00, 0x00, 0x9a, 0xf9, 0xff, 0xff,
  0x14, 0x00, 0x00, 0x00, 0x00, 0x00, 0x00, 0x01, 0x1c, 0x00, 0x00, 0x00,
  0x20, 0x00, 0x00, 0x00, 0x06, 0x00, 0x00, 0x00, 0x30, 0xfb, 0xff, 0xff,
  0x00, 0x00, 0x00, 0x03, 0x01, 0x00, 0x00, 0x00, 0x01, 0x00, 0x00, 0x00,
  0x01, 0x00, 0x00, 0x00, 0x5b, 0x00, 0x00, 0x00, 0x03, 0x00, 0x00, 0x00,
  0x5a, 0x00, 0x00, 0x00, 0x1f, 0x00, 0x00, 0x00, 0x1e, 0x00, 0x00, 0x00,
  0xda, 0xf9, 0xff, 0xff, 0x14, 0x00, 0x00, 0x00, 0x00, 0x00, 0x00, 0x1b,
  0x14, 0x00, 0x00, 0x00, 0x18, 0x00, 0x00, 0x00, 0x05, 0x00, 0x00, 0x00,
  0x72, 0xf9, 0xff, 0xff, 0x00, 0x00, 0x00, 0x01, 0x01, 0x00, 0x00, 0x00,
  0x5a, 0x00, 0x00, 0x00, 0x02, 0x00, 0x00, 0x00, 0x59, 0x00, 0x00, 0x00,
  0x06, 0x00, 0x00, 0x00, 0x0e, 0xfa, 0xff, 0xff, 0x14, 0x00, 0x00, 0x00,
  0x00, 0x00, 0x00, 0x0b, 0x14, 0x00, 0x00, 0x00, 0x18, 0x00, 0x00, 0x00,
  0x0c, 0x00, 0x00, 0x00, 0xa6, 0xf9, 0xff, 0xff, 0x00, 0x00, 0x00, 0x03,
  0x01, 0x00, 0x00, 0x00, 0x59, 0x00, 0x00, 0x00, 0x02, 0x00, 0x00, 0x00,
  0x58, 0x00, 0x00, 0x00, 0x20, 0x00, 0x00, 0x00, 0x42, 0xfa, 0xff, 0xff,
  0x14, 0x00, 0x00, 0x00, 0x00, 0x00, 0x00, 0x15, 0x10, 0x00, 0x00, 0x00,
  0x14, 0x00, 0x00, 0x00, 0x09, 0x00, 0x00, 0x00, 0x40, 0x91, 0xff, 0xff,
  0x01, 0x00, 0x00, 0x00, 0x58, 0x00, 0x00, 0x00, 0x02, 0x00, 0x00, 0x00,
  0x57, 0x00, 0x00, 0x00, 0x21, 0x00, 0x00, 0x00, 0xe6, 0xfa, 0xff, 0xff,
  0x0c, 0x00, 0x00, 0x00, 0x10, 0x00, 0x00, 0x00, 0x0b, 0x00, 0x00, 0x00,
  0x01, 0x00, 0x00, 0x00, 0x57, 0x00, 0x00, 0x00, 0x03, 0x00, 0x00, 0x00,
  0x56, 0x00, 0x00, 0x00, 0x09, 0x00, 0x00, 0x00, 0x08, 0x00, 0x00, 0x00,
  0x9a, 0xfa, 0xff, 0xff, 0x14, 0x00, 0x00, 0x00, 0x00, 0x00, 0x00, 0x02,
  0x20, 0x00, 0x00, 0x00, 0x24, 0x00, 0x00, 0x00, 0x04, 0x00, 0x00, 0x00,
  0xa4, 0xfd, 0xff, 0xff, 0x01, 0x00, 0x00, 0x00, 0x01, 0x00, 0x00, 0x00,
  0x01, 0x00, 0x00, 0x00, 0x00, 0x00, 0x00, 0x01, 0x01, 0x00, 0x00, 0x00,
  0x56, 0x00, 0x00, 0x00, 0x03, 0x00, 0x00, 0x00, 0x55, 0x00, 0x00, 0x00,
  0x23, 0x00, 0x00, 0x00, 0x22, 0x00, 0x00, 0x00, 0x52, 0xfb, 0xff, 0xff,
  0x0c, 0x00, 0x00, 0x00, 0x10, 0x00, 0x00, 0x00, 0x0a, 0x00, 0x00, 0x00,
  0x01, 0x00, 0x00, 0x00, 0x55, 0x00, 0x00, 0x00, 0x03, 0x00, 0x00, 0x00,
  0x54, 0x00, 0x00, 0x00, 0x09, 0x00, 0x00, 0x00, 0x0a, 0x00, 0x00, 0x00,
  0x06, 0xfb, 0xff, 0xff, 0x14, 0x00, 0x00, 0x00, 0x00, 0x00, 0x00, 0x01,
  0x1c, 0x00, 0x00, 0x00, 0x20, 0x00, 0x00, 0x00, 0x06, 0x00, 0x00, 0x00,
  0x9c, 0xfc, 0xff, 0xff, 0x00, 0x00, 0x00, 0x03, 0x01, 0x00, 0x00, 0x00,
  0x01, 0x00, 0x00, 0x00, 0x01, 0x00, 0x00, 0x00, 0x54, 0x00, 0x00, 0x00,
  0x03, 0x00, 0x00, 0x00, 0x53, 0x00, 0x00, 0x00, 0x25, 0x00, 0x00, 0x00,
  0x24, 0x00, 0x00, 0x00, 0x46, 0xfb, 0xff, 0xff, 0x14, 0x00, 0x00, 0x00,
  0x00, 0x00, 0x00, 0x15, 0x10, 0x00, 0x00, 0x00, 0x14, 0x00, 0x00, 0x00,
  0x09, 0x00, 0x00, 0x00, 0x44, 0x92, 0xff, 0xff, 0x01, 0x00, 0x00, 0x00,
  0x53, 0x00, 0x00, 0x00, 0x02, 0x00, 0x00, 0x00, 0x4d, 0x00, 0x00, 0x00,
  0x52, 0x00, 0x00, 0x00, 0xea, 0xfb, 0xff, 0xff, 0x0c, 0x00, 0x00, 0x00,
  0x10, 0x00, 0x00, 0x00, 0x08, 0x00, 0x00, 0x00, 0x01, 0x00, 0x00, 0x00,
  0x52, 0x00, 0x00, 0x00, 0x01, 0x00, 0x00, 0x00, 0x51, 0x00, 0x00, 0x00,
  0x0a, 0xfc, 0xff, 0xff, 0x0c, 0x00, 0x00, 0x00, 0x10, 0x00, 0x00, 0x00,
  0x07, 0x00, 0x00, 0x00, 0x01, 0x00, 0x00, 0x00, 0x51, 0x00, 0x00, 0x00,
  0x02, 0x00, 0x00, 0x00, 0x50, 0x00, 0x00, 0x00, 0x31, 0x00, 0x00, 0x00,
  0xba, 0xfb, 0xff, 0xff, 0x14, 0x00, 0x00, 0x00, 0x00, 0x00, 0x00, 0x01,
  0x18, 0x00, 0x00, 0x00, 0x1c, 0x00, 0x00, 0x00, 0x06, 0x00, 0x00, 0x00,
  0x96, 0xfd, 0xff, 0xff, 0x01, 0x00, 0x00, 0x00, 0x01, 0x00, 0x00, 0x00,
  0x01, 0x00, 0x00, 0x00, 0x50, 0x00, 0x00, 0x00, 0x03, 0x00, 0x00, 0x00,
  0x4f, 0x00, 0x00, 0x00, 0x27, 0x00, 0x00, 0x00, 0x26, 0x00, 0x00, 0x00,
  0xf6, 0xfb, 0xff, 0xff, 0x14, 0x00, 0x00, 0x00, 0x00, 0x00, 0x00, 0x01,
  0x1c, 0x00, 0x00, 0x00, 0x20, 0x00, 0x00, 0x00, 0x06, 0x00, 0x00, 0x00,
  0x8c, 0xfd, 0xff, 0xff, 0x00, 0x00, 0x00, 0x03, 0x01, 0x00, 0x00, 0x00,
  0x01, 0x00, 0x00, 0x00, 0x01, 0x00, 0x00, 0x00, 0x4f, 0x00, 0x00, 0x00,
  0x03, 0x00, 0x00, 0x00, 0x4e, 0x00, 0x00, 0x00, 0x29, 0x00, 0x00, 0x00,
  0x28, 0x00, 0x00, 0x00, 0x36, 0xfc, 0xff, 0xff, 0x14, 0x00, 0x00, 0x00,
  0x00, 0x00, 0x00, 0x1b, 0x14, 0x00, 0x00, 0x00, 0x18, 0x00, 0x00, 0x00,
  0x05, 0x00, 0x00, 0x00, 0xce, 0xfb, 0xff, 0xff, 0x00, 0x00, 0x00, 0x01,
  0x01, 0x00, 0x00, 0x00, 0x4e, 0x00, 0x00, 0x00, 0x02, 0x00, 0x00, 0x00,
  0x4d, 0x00, 0x00, 0x00, 0x06, 0x00, 0x00, 0x00, 0x6a, 0xfc, 0xff, 0xff,
  0x14, 0x00, 0x00, 0x00, 0x00, 0x00, 0x00, 0x0b, 0x14, 0x00, 0x00, 0x00,
  0x18, 0x00, 0x00, 0x00, 0x0c, 0x00, 0x00, 0x00, 0x02, 0xfc, 0xff, 0xff,
  0x00, 0x00, 0x00, 0x03, 0x01, 0x00, 0x00, 0x00, 0x4d, 0x00, 0x00, 0x00,
  0x02, 0x00, 0x00, 0x00, 0x4c, 0x00, 0x00, 0x00, 0x2a, 0x00, 0x00, 0x00,
  0x9e, 0xfc, 0xff, 0xff, 0x14, 0x00, 0x00, 0x00, 0x00, 0x00, 0x00, 0x15,
  0x10, 0x00, 0x00, 0x00, 0x14, 0x00, 0x00, 0x00, 0x09, 0x00, 0x00, 0x00,
  0x9c, 0x93, 0xff, 0xff, 0x01, 0x00, 0x00, 0x00, 0x4c, 0x00, 0x00, 0x00,
  0x02, 0x00, 0x00, 0x00, 0x4b, 0x00, 0x00, 0x00, 0x2b, 0x00, 0x00, 0x00,
  0x42, 0xfd, 0xff, 0xff, 0x0c, 0x00, 0x00, 0x00, 0x10, 0x00, 0x00, 0x00,
  0x0b, 0x00, 0x00, 0x00, 0x01, 0x00, 0x00, 0x00, 0x4b, 0x00, 0x00, 0x00,
  0x03, 0x00, 0x00, 0x00, 0x4a, 0x00, 0x00, 0x00, 0x06, 0x00, 0x00, 0x00,
  0x08, 0x00, 0x00, 0x00, 0xf6, 0xfc, 0xff, 0xff, 0x20, 0x00, 0x00, 0x00,
  0x00, 0x00, 0x00, 0x02, 0x2c, 0x00, 0x00, 0x00, 0x30, 0x00, 0x00, 0x00,
  0x04, 0x00, 0x00, 0x00, 0x0c, 0x00, 0x14, 0x00, 0x13, 0x00, 0x0c, 0x00,
  0x08, 0x00, 0x04, 0x00, 0x0c, 0x00, 0x00, 0x00, 0x01, 0x00, 0x00, 0x00,
  0x01, 0x00, 0x00, 0x00, 0x01, 0x00, 0x00, 0x00, 0x00, 0x00, 0x00, 0x01,
  0x01, 0x00, 0x00, 0x00, 0x4a, 0x00, 0x00, 0x00, 0x03, 0x00, 0x00, 0x00,
  0x49, 0x00, 0x00, 0x00, 0x2d, 0x00, 0x00, 0x00, 0x2c, 0x00, 0x00, 0x00,
  0xba, 0xfd, 0xff, 0xff, 0x0c, 0x00, 0x00, 0x00, 0x10, 0x00, 0x00, 0x00,
  0x0a, 0x00, 0x00, 0x00, 0x01, 0x00, 0x00, 0x00, 0x49, 0x00, 0x00, 0x00,
  0x03, 0x00, 0x00, 0x00, 0x48, 0x00, 0x00, 0x00, 0x06, 0x00, 0x00, 0x00,
  0x07, 0x00, 0x00, 0x00, 0x6e, 0xfd, 0xff, 0xff, 0x14, 0x00, 0x00, 0x00,
  0x00, 0x00, 0x00, 0x01, 0x1c, 0x00, 0x00, 0x00, 0x20, 0x00, 0x00, 0x00,
  0x06, 0x00, 0x00, 0x00, 0x04, 0xff, 0xff, 0xff, 0x00, 0x00, 0x00, 0x03,
  0x01, 0x00, 0x00, 0x00, 0x01, 0x00, 0x00, 0x00, 0x01, 0x00, 0x00, 0x00,
  0x48, 0x00, 0x00, 0x00, 0x03, 0x00, 0x00, 0x00, 0x47, 0x00, 0x00, 0x00,
  0x2f, 0x00, 0x00, 0x00, 0x2e, 0x00, 0x00, 0x00, 0xae, 0xfd, 0xff, 0xff,
  0x14, 0x00, 0x00, 0x00, 0x00, 0x00, 0x00, 0x15, 0x10, 0x00, 0x00, 0x00,
  0x14, 0x00, 0x00, 0x00, 0x09, 0x00, 0x00, 0x00, 0xac, 0x94, 0xff, 0xff,
  0x01, 0x00, 0x00, 0x00, 0x47, 0x00, 0x00, 0x00, 0x02, 0x00, 0x00, 0x00,
  0x41, 0x00, 0x00, 0x00, 0x46, 0x00, 0x00, 0x00, 0x52, 0xfe, 0xff, 0xff,
  0x0c, 0x00, 0x00, 0x00, 0x10, 0x00, 0x00, 0x00, 0x08, 0x00, 0x00, 0x00,
  0x01, 0x00, 0x00, 0x00, 0x46, 0x00, 0x00, 0x00, 0x01, 0x00, 0x00, 0x00,
  0x45, 0x00, 0x00, 0x00, 0x72, 0xfe, 0xff, 0xff, 0x0c, 0x00, 0x00, 0x00,
  0x10, 0x00, 0x00, 0x00, 0x07, 0x00, 0x00, 0x00, 0x01, 0x00, 0x00, 0x00,
  0x45, 0x00, 0x00, 0x00, 0x02, 0x00, 0x00, 0x00, 0x44, 0x00, 0x00, 0x00,
  0x30, 0x00, 0x00, 0x00, 0x22, 0xfe, 0xff, 0xff, 0x20, 0x00, 0x00, 0x00,
  0x00, 0x00, 0x00, 0x01, 0x24, 0x00, 0x00, 0x00, 0x28, 0x00, 0x00, 0x00,
  0x06, 0x00, 0x00, 0x00, 0x00, 0x00, 0x0a, 0x00, 0x0c, 0x00, 0x00, 0x00,
  0x08, 0x00, 0x04, 0x00, 0x0a, 0x00, 0x00, 0x00, 0x01, 0x00, 0x00, 0x00,
  0x01, 0x00, 0x00, 0x00, 0x01, 0x00, 0x00, 0x00, 0x44, 0x00, 0x00, 0x00,
  0x03, 0x00, 0x00, 0x00, 0x43, 0x00, 0x00, 0x00, 0x35, 0x00, 0x00, 0x00,
  0x34, 0x00, 0x00, 0x00, 0x6a, 0xfe, 0xff, 0xff, 0x20, 0x00, 0x00, 0x00,
  0x00, 0x00, 0x00, 0x01, 0x28, 0x00, 0x00, 0x00, 0x2c, 0x00, 0x00, 0x00,
  0x06, 0x00, 0x00, 0x00, 0x0c, 0x00, 0x10, 0x00, 0x00, 0x00, 0x0c, 0x00,
  0x08, 0x00, 0x07, 0x00, 0x0c, 0x00, 0x00, 0x00, 0x00, 0x00, 0x00, 0x03,
  0x01, 0x00, 0x00, 0x00, 0x01, 0x00, 0x00, 0x00, 0x01, 0x00, 0x00, 0x00,
  0x43, 0x00, 0x00, 0x00, 0x03, 0x00, 0x00, 0x00, 0x42, 0x00, 0x00, 0x00,
  0x37, 0x00, 0x00, 0x00, 0x36, 0x00, 0x00, 0x00, 0xb6, 0xfe, 0xff, 0xff,
  0x14, 0x00, 0x00, 0x00, 0x00, 0x00, 0x00, 0x1b, 0x14, 0x00, 0x00, 0x00,
  0x18, 0x00, 0x00, 0x00, 0x05, 0x00, 0x00, 0x00, 0x4e, 0xfe, 0xff, 0xff,
  0x00, 0x00, 0x00, 0x01, 0x01, 0x00, 0x00, 0x00, 0x42, 0x00, 0x00, 0x00,
  0x02, 0x00, 0x00, 0x00, 0x41, 0x00, 0x00, 0x00, 0x06, 0x00, 0x00, 0x00,
  0xea, 0xfe, 0xff, 0xff, 0x24, 0x00, 0x00, 0x00, 0x00, 0x00, 0x00, 0x02,
  0x30, 0x00, 0x00, 0x00, 0x34, 0x00, 0x00, 0x00, 0x04, 0x00, 0x00, 0x00,
  0x00, 0x00, 0x0e, 0x00, 0x14, 0x00, 0x00, 0x00, 0x10, 0x00, 0x0c, 0x00,
  0x08, 0x00, 0x07, 0x00, 0x0e, 0x00, 0x00, 0x00, 0x00, 0x00, 0x00, 0x03,
  0x01, 0x00, 0x00, 0x00, 0x01, 0x00, 0x00, 0x00, 0x01, 0x00, 0x00, 0x00,
  0x01, 0x00, 0x00, 0x00, 0x41, 0x00, 0x00, 0x00, 0x03, 0x00, 0x00, 0x00,
  0x40, 0x00, 0x00, 0x00, 0x39, 0x00, 0x00, 0x00, 0x38, 0x00, 0x00, 0x00,
  0x3e, 0xff, 0xff, 0xff, 0x20, 0x00, 0x00, 0x00, 0x00, 0x00, 0x00, 0x02,
  0x28, 0x00, 0x00, 0x00, 0x2c, 0x00, 0x00, 0x00, 0x04, 0x00, 0x00, 0x00,
  0x0c, 0x00, 0x10, 0x00, 0x00, 0x00, 0x0c, 0x00, 0x08, 0x00, 0x04, 0x00,
  0x0c, 0x00, 0x00, 0x00, 0x01, 0x00, 0x00, 0x00, 0x01, 0x00, 0x00, 0x00,
  0x01, 0x00, 0x00, 0x00, 0x01, 0x00, 0x00, 0x00, 0x40, 0x00, 0x00, 0x00,
  0x03, 0x00, 0x00, 0x00, 0x3f, 0x00, 0x00, 0x00, 0x3b, 0x00, 0x00, 0x00,
  0x3a, 0x00, 0x00, 0x00, 0x00, 0x00, 0x0a, 0x00, 0x10, 0x00, 0x0c, 0x00,
  0x08, 0x00, 0x04, 0x00, 0x0a, 0x00, 0x00, 0x00, 0x0c, 0x00, 0x00, 0x00,
  0x10, 0x00, 0x00, 0x00, 0x03, 0x00, 0x00, 0x00, 0x01, 0x00, 0x00, 0x00,
  0x3f, 0x00, 0x00, 0x00, 0x02, 0x00, 0x00, 0x00, 0x00, 0x00, 0x00, 0x00,
  0x3e, 0x00, 0x00, 0x00, 0xba, 0xff, 0xff, 0xff, 0x1c, 0x00, 0x00, 0x00,
  0x00, 0x00, 0x00, 0x3b, 0x1c, 0x00, 0x00, 0x00, 0x20, 0x00, 0x00, 0x00,
  0x02, 0x00, 0x00, 0x00, 0x00, 0x00, 0x06, 0x00, 0x08, 0x00, 0x04, 0x00,
  0x06, 0x00, 0x00, 0x00, 0x04, 0x00, 0x00, 0x00, 0x01, 0x00, 0x00, 0x00,
  0x3e, 0x00, 0x00, 0x00, 0x04, 0x00, 0x00, 0x00, 0x3d, 0x00, 0x00, 0x00,
  0x03, 0x00, 0x00, 0x00, 0x04, 0x00, 0x00, 0x00, 0x05, 0x00, 0x00, 0x00,
  0x00, 0x00, 0x0e, 0x00, 0x1a, 0x00, 0x14, 0x00, 0x10, 0x00, 0x0c, 0x00,
  0x0b, 0x00, 0x04, 0x00, 0x0e, 0x00, 0x00, 0x00, 0x24, 0x00, 0x00, 0x00,
  0x00, 0x00, 0x00, 0x20, 0x24, 0x00, 0x00, 0x00, 0x28, 0x00, 0x00, 0x00,
  0x01, 0x00, 0x00, 0x00, 0x00, 0x00, 0x0e, 0x00, 0x08, 0x00, 0x00, 0x00,
  0x00, 0x00, 0x00, 0x00, 0x00, 0x00, 0x04, 0x00, 0x0e, 0x00, 0x00, 0x00,
  0x01, 0x00, 0x00, 0x00, 0x01, 0x00, 0x00, 0x00, 0x3d, 0x00, 0x00, 0x00,
  0x04, 0x00, 0x00, 0x00, 0x3c, 0x00, 0x00, 0x00, 0x01, 0x00, 0x00, 0x00,
  0x02, 0x00, 0x00, 0x00, 0x02, 0x00, 0x00, 0x00, 0x00, 0x00, 0x0e, 0x00,
  0x16, 0x00, 0x00, 0x00, 0x10, 0x00, 0x0c, 0x00, 0x0b, 0x00, 0x04, 0x00,
  0x0e, 0x00, 0x00, 0x00, 0x18, 0x00, 0x00, 0x00, 0x00, 0x00, 0x00, 0x37,
  0x18, 0x00, 0x00, 0x00, 0x1c, 0x00, 0x00, 0x00, 0x00, 0x00, 0x06, 0x00,
  0x08, 0x00, 0x07, 0x00, 0x06, 0x00, 0x00, 0x00, 0x00, 0x00, 0x00, 0x02,
  0x01, 0x00, 0x00, 0x00, 0x3c, 0x00, 0x00, 0x00, 0x01, 0x00, 0x00, 0x00,
  0x00, 0x00, 0x00, 0x00, 0x01, 0x00, 0x00, 0x00, 0x71, 0x00, 0x00, 0x00,
  0x01, 0x00, 0x00, 0x00, 0x00, 0x00, 0x00, 0x00, 0x72, 0x00, 0x00, 0x00,
  0xb4, 0x68, 0x00, 0x00, 0x48, 0x68, 0x00, 0x00, 0xdc, 0x67, 0x00, 0x00,
  0x94, 0x67, 0x00, 0x00, 0x4c, 0x67, 0x00, 0x00, 0x04, 0x67, 0x00, 0x00,
  0xa8, 0x66, 0x00, 0x00, 0x3c, 0x66, 0x00, 0x00, 0xd4, 0x65, 0x00, 0x00,
  0x6c, 0x65, 0x00, 0x00, 0x00, 0x65, 0x00, 0x00, 0x98, 0x64, 0x00, 0x00,
